the 78360
to 47360
of 45533
a 42217
and 40028
in 30503
that 28921
I 25976
is 25108
you 21197
And 19003
we 16693
s 16163
. 15499
it 15301
, 15111
this 14472
-- 13664
ing 12654
ed 12532
on 11886
was 11147
are 10826
for 10422
have 10264
es 10212
re@@ 9135
with 8958
y 8848
an 8613
at 8594
s@@ 8363
s, 8207
about 8182
they 8084
s. 8057
be 7874
what 7852
as 7818
can 7712
d@@ 7422
e@@ 7398
all 7308
e, 7307
t 7199
-@@ 7168
e. 7121
in@@ 7099
al 7034
one 6935
y@@ 6925
f@@ 6754
b@@ 6735
or 6547
not 6540
h@@ 6486
do 6193
de@@ 6130
a@@ 6035
er 5858
w@@ 5855
c@@ 5803
from 5792
g@@ 5764
st@@ 5741
it's 5737
So 5650
e 5583
"@@ 5543
like 5464
so 5461
my 5433
l@@ 5290
t@@ 5249
very 5203
just 5180
i@@ 5174
but 5065
ar@@ 4933
? 4929
p@@ 4903
k@@ 4891
people 4884
The 4882
S@@ 4811
going 4752
our 4737
if 4728
But 4694
: 4684
y. 4675
y, 4653
un@@ 4607
n@@ 4606
these 4603
es, 4555
es. 4443
at@@ 4425
out 4390
by 4297
it@@ 4213
al@@ 4175
which 4154
ex@@ 4141
en@@ 4121
d 4067
m@@ 4050
th@@ 4036
because 4034
u@@ 4020
o@@ 4019
get 4000
had 3945
er@@ 3936
there 3924
up 3922
We 3902
when 3871
ac@@ 3841
how 3793
an@@ 3792
think 3771
This 3758
sh@@ 3758
M@@ 3729
B@@ 3710
on@@ 3698
would 3673
r@@ 3639
really 3634
he 3632
your 3630
I'm 3619
se@@ 3607
ly 3590
see 3571
ch@@ 3569
ation 3550
ic@@ 3524
more 3521
It's 3513
ro@@ 3399
el@@ 3358
were 3348
has 3335
their 3288
or@@ 3283
who 3254
di@@ 3254
li@@ 3252
C@@ 3227
." 3217
ate 3205
some 3197
H@@ 3184
A@@ 3159
me 3158
ri@@ 3119
You 3115
that's 3111
where 3111
into 3108
then 3094
don't 3090
T@@ 3078
d, 3048
si@@ 3022
con@@ 3010
m 2941
will 2919
them 2884
It 2878
ab@@ 2860
as@@ 2852
co@@ 2852
♫ 2826
ent 2818
actually 2813
ing, 2811
am@@ 2803
d. 2778
So, 2754
ag@@ 2740
lo@@ 2740
le@@ 2737
us 2737
's 2730
z@@ 2720
k 2709
know 2700
go 2697
es@@ 2689
want 2687
make 2659
ad@@ 2648
mo@@ 2635
ing. 2623
P@@ 2608
could 2592
D@@ 2584
pl@@ 2581
O@@ 2581
been 2576
it. 2572
be@@ 2571
se 2527
L@@ 2515
ne@@ 2499
do@@ 2493
G@@ 2485
things 2483
got 2465
em@@ 2465
et@@ 2463
other 2446
ts 2418
W@@ 2401
little 2353
E@@ 2344
ph@@ 2342
way 2335
able 2327
ity 2322
for@@ 2309
ec@@ 2300
il@@ 2293
n 2292
to@@ 2290
mi@@ 2285
ra@@ 2269
ing@@ 2255
us@@ 2246
ally 2238
ma@@ 2232
than 2228
N@@ 2217
ers 2208
v@@ 2201
kind 2192
R@@ 2187
gi@@ 2182
ol@@ 2168
something 2165
know, 2152
ul@@ 2141
ds 2134
is@@ 2128
h 2117
ent@@ 2110
ap@@ 2100
F@@ 2097
They 2087
pro@@ 2079
p 2075
le 2074
his 2062
look 2051
those 2048
ar 2042
we're 2035
first 2022
two 2007
years 1999
ter@@ 1993
su@@ 1979
thing 1958
; 1949
no 1946
here 1936
ic 1914
ed. 1912
only 1912
no@@ 1899
J@@ 1898
1@@ 1892
now 1883
time 1878
ur@@ 1873
over 1864
ou@@ 1861
ot@@ 1857
wh@@ 1856
said, 1852
im@@ 1845
est 1842
lot 1830
age 1827
x@@ 1826
l 1817
ical 1807
et 1806
much 1804
po@@ 1802
ed, 1799
ous 1799
also 1797
most 1789
In 1789
tion 1763
world 1759
ve 1758
you're 1754
ut@@ 1740
t. 1740
back 1739
Now, 1733
take 1730
en 1719
bl@@ 1719
K@@ 1711
come 1694
we@@ 1686
What 1682
it, 1677
ght 1674
str@@ 1667
any 1667
er, 1665
ti@@ 1663
a, 1656
put 1653
bo@@ 1647
need 1642
new 1639
car@@ 1631
fi@@ 1625
ting 1621
ks 1619
even 1616
tr@@ 1608
many 1606
t, 1600
right 1596
there's 1587
per@@ 1586
she 1584
ll@@ 1584
me@@ 1584
ver@@ 1583
tu@@ 1576
man@@ 1575
c 1562
did 1550
pi@@ 1549
its 1542
pa@@ 1525
ed@@ 1525
ta@@ 1516
ely 1515
er. 1515
k, 1502
cre@@ 1502
around 1500
th 1492
work 1492
pe@@ 1491
If 1487
gu@@ 1485
g 1476
de 1458
vi@@ 1456
gh@@ 1451
being 1451
every 1449
la@@ 1449
est@@ 1432
through 1431
par@@ 1427
good 1417
min@@ 1417
ated 1415
sur@@ 1411
they're 1406
same 1405
different 1402
use 1399
all@@ 1390
ded 1382
op@@ 1374
inter@@ 1372
om@@ 1363
a. 1353
I@@ 1352
w 1351
av@@ 1337
down 1333
doing 1328
called 1323
ad 1320
tra@@ 1300
That's 1300
war@@ 1294
k. 1291
o 1290
ence 1290
com@@ 1288
ant@@ 1280
wor@@ 1279
is, 1276
I've 1273
ine 1267
wa@@ 1260
He 1256
made 1255
king 1246
ever 1237
her 1236
ice 1230
sp@@ 1223
pre@@ 1222
2@@ 1219
anc@@ 1216
ary 1215
sol@@ 1212
that, 1209
j@@ 1208
three 1207
gra@@ 1205
qu@@ 1203
wi@@ 1199
bi@@ 1198
ted 1191
ating 1191
gro@@ 1187
so@@ 1182
ment 1178
say 1174
ist@@ 1161
mon@@ 1158
sa@@ 1157
ther 1155
ther@@ 1154
dis@@ 1153
ch 1144
human 1142
?" 1139
ally, 1137
sion 1136
A 1135
mor@@ 1135
ca@@ 1134
talk 1131
ci@@ 1131
There 1130
ding 1129
ation. 1125
Ch@@ 1124
fe@@ 1124
ning 1119
Wh@@ 1111
ant 1111
life 1111
ion@@ 1110
why 1110
ali@@ 1108
Well, 1106
3@@ 1104
ying 1100
ation, 1100
V@@ 1097
sort 1097
last 1096
ble 1096
tell 1093
went 1092
oo@@ 1092
fin@@ 1091
fac@@ 1080
ev@@ 1079
go@@ 1076
gen@@ 1071
didn't 1070
re 1068
give 1064
any@@ 1064
find 1060
fl@@ 1060
ment@@ 1058
tri@@ 1056
own 1055
chang@@ 1053
b 1052
'@@ 1048
old 1048
st 1047
Th@@ 1043
iti@@ 1040
used 1036
ce 1033
ang@@ 1030
show 1028
can't 1028
we've 1028
comp@@ 1025
should 1024
TED 1022
ly, 1022
that. 1021
e's 1016
ked 1015
plan@@ 1012
started 1012
br@@ 1008
big 1008
.@@ 1006
great 1002
pres@@ 997
,000 997
enti@@ 993
ast@@ 993
tre@@ 992
wat@@ 989
you. 988
say, 977
after 973
star@@ 973
der@@ 967
ke 961
another 961
percent 960
fun@@ 960
happen@@ 957
sc@@ 957
ite 955
enc@@ 955
end 954
form@@ 946
lin@@ 946
That 946
pri@@ 942
he@@ 940
att@@ 940
her@@ 937
ation@@ 935
re. 935
never 935
air@@ 929
up@@ 929
other@@ 929
came 926
this. 920
el 920
r 919
ir@@ 918
ions 918
red 918
part 917
hi@@ 915
bit 914
als 913
produc@@ 913
ow@@ 911
start 910
cu@@ 909
les 908
ain@@ 906
change 904
h, 902
son@@ 901
um@@ 901
ess 901
liv@@ 900
ge 899
mar@@ 899
x 898
body 898
looking 897
might 897
whole 896
idea 895
4@@ 892
next 891
clo@@ 889
ki@@ 888
struc@@ 888
ations 886
," 885
ni@@ 883
int@@ 883
ber@@ 879
" 875
ght, 873
How 873
St@@ 870
does 866
few 865
out@@ 864
day 863
trans@@ 863
ze 863
ide@@ 859
ance 859
oun@@ 856
per 855
Because 854
world. 852
imag@@ 849
gre@@ 849
here, 849
e? 848
da@@ 846
os@@ 846
and@@ 845
am 845
still 844
design@@ 843
When 841
off@@ 840
7@@ 838
Now 837
al. 836
man 835
mat@@ 835
end@@ 833
comes 831
here. 831
every@@ 831
each 828
our@@ 825
low@@ 825
te@@ 825
there. 823
them. 822
cor@@ 821
tal@@ 820
ear@@ 820
bu@@ 819
5@@ 816
al, 810
off 809
Thank 807
ric@@ 807
on. 807
o, 807
ful@@ 806
fre@@ 806
doesn't 806
ru@@ 805
between 805
gener@@ 805
the@@ 805
der 803
ful 803
spe@@ 799
way, 798
ori@@ 798
tor@@ 797
ey@@ 794
tic@@ 794
cont@@ 794
ell@@ 793
oc@@ 792
re, 792
this, 791
ess@@ 789
thought 786
them@@ 781
million 781
try 781
wanted 779
au@@ 772
cur@@ 772
said 766
thing. 765
long 764
system@@ 764
8@@ 763
ve@@ 763
me, 761
call 760
19@@ 760
6@@ 760
! 758
ste@@ 758
0@@ 757
jo@@ 757
important 752
some@@ 752
ture 750
Y@@ 747
cent@@ 746
ani@@ 743
always 742
time, 741
Talk 739
real 739
ak@@ 737
uc@@ 731
f 729
trying 728
serv@@ 727
time. 727
fa@@ 727
ue 725
may 724
better 722
I'll 720
ati@@ 719
ght@@ 719
met@@ 719
differ@@ 717
question@@ 717
bac@@ 717
on, 716
ter 712
place 712
found 712
and, 712
9@@ 709
ce@@ 709
Subtitles 708
Transcript: 708
There's 704
har@@ 704
ity. 703
'd 703
self 703
sub@@ 702
what's 702
less 701
le, 701
ry 699
bor@@ 699
high@@ 697
acc@@ 696
stor@@ 695
coming 695
ach@@ 695
th. 695
before 694
eng@@ 694
sup@@ 694
low 694
ave 693
working 692
ings 691
ses 690
econom@@ 689
10 688
res 686
zed 685
ari@@ 684
took 683
side 683
four 682
understand 682
ates 681
o. 681
getting 680
act 679
plac@@ 678
day, 677
quite 673
e-@@ 673
rel@@ 673
sen@@ 671
ten@@ 671
ei@@ 669
over@@ 669
These 668
lat@@ 666
using 666
cl@@ 665
fact, 665
ell 663
writ@@ 663
love 663
ion. 662
you, 660
year 659
ob@@ 659
ds, 659
way. 656
in. 656
et. 655
my@@ 654
ative 653
speci@@ 653
I'd 652
ach 652
ke@@ 652
believe 651
down@@ 651
mer@@ 649
problem@@ 648
hist@@ 647
ase 646
wn 645
done 643
design 643
ans 642
in, 642
mark@@ 641
ion, 641
ity, 641
course, 641
point 640
ms 638
develop@@ 637
pla@@ 637
one. 635
create 635
live 634
ack 634
My 632
An@@ 632
lear@@ 632
ous@@ 632
ys 630
hear@@ 630
One 628
making 627
world, 626
happ@@ 626
ves 626
us. 625
there, 625
can@@ 623
bre@@ 623
y? 622
il 621
evol@@ 620
work@@ 619
fam@@ 618
now, 618
ep@@ 618
out. 616
feel 616
too 615
ers, 615
port@@ 612
probably 611
person@@ 610
und 610
th, 609
him 608
you've 608
gr@@ 605
ory 605
out, 604
sk@@ 604
tw@@ 602
tive 601
them, 601
pr@@ 599
ici@@ 599
spen@@ 599
win@@ 598
an, 597
water 597
comput@@ 597
connec@@ 596
en, 595
ty@@ 595
You@@ 594
story 593
boo@@ 592
talking 592
cam@@ 591
lu@@ 591
pretty 590
nam@@ 590
ement@@ 590
sit@@ 590
et, 589
technology 588
ics 588
w, 586
one, 584
mov@@ 584
what@@ 583
pic@@ 581
long@@ 579
maybe 579
net@@ 579
ef@@ 578
ws 576
ral 576
hav@@ 576
ast 574
sy@@ 574
human@@ 573
duc@@ 573
become 572
five 572
respon@@ 572
mus@@ 572
ea@@ 570
sim@@ 570
pp@@ 570
pu@@ 569
um 569
problem 569
We're 569
pt@@ 568
anim@@ 563
build 563
mu@@ 562
ence. 562
te 561
ai@@ 561
let 561
dro@@ 560
wee@@ 558
dre@@ 557
us, 556
light 556
ess, 556
col@@ 556
so, 556
ard 554
ps 553
pas@@ 553
coun@@ 553
se. 552
point@@ 552
cer@@ 551
sum@@ 550
pt 549
se, 549
bro@@ 549
number 548
years, 548
gg@@ 548
No@@ 546
commun@@ 545
help 543
don@@ 543
sm@@ 543
thing, 543
In@@ 542
without 542
thou@@ 542
... 542
e: 541
ood 541
dit@@ 541
Ma@@ 540
me. 539
pol@@ 539
know@@ 536
everything 536
ect 536
makes 536
part@@ 533
small 533
best 532
den@@ 532
pen@@ 530
kids 530
tion@@ 529
inst@@ 529
mean, 529
educ@@ 528
building 528
50 527
Mar@@ 527
having 527
beg@@ 526
means 525
m, 525
across 524
fo@@ 524
bri@@ 523
ator@@ 523
half 523
ents 523
20 523
system 523
brain 523
've 522
ge@@ 522
they@@ 521
sure 521
ities 520
thinking 520
head@@ 520
set 519
eas@@ 519
person 518
ily 517
af@@ 517
second 517
interesting 515
ers. 515
stre@@ 515
ore 514
ence, 514
spec@@ 514
up, 512
loo@@ 512
move 512
chi@@ 512
reali@@ 512
partic@@ 511
ig@@ 510
rac@@ 510
cap@@ 510
such 510
govern@@ 510
mach@@ 510
U@@ 509
sor@@ 509
cas@@ 509
ill@@ 509
exper@@ 509
bra@@ 509
form 508
en. 507
school@@ 507
power 506
question 506
up. 505
face 504
sic 504
play 504
hel@@ 503
him@@ 503
seen 502
children 500
All 500
thre@@ 500
cell@@ 499
lev@@ 498
coll@@ 498
ds. 498
ly. 497
sion@@ 496
sing 496
s? 494
't 493
pos@@ 492
pe 492
away 491
en't 491
you@@ 490
ff@@ 490
hy@@ 489
ba@@ 488
are@@ 487
saw 487
all, 486
vol@@ 486
ask 486
blo@@ 485
ply 485
like, 485
En@@ 485
well 484
if@@ 484
sci@@ 484
things. 483
'll 482
great@@ 482
stud@@ 482
told 481
grow@@ 481
She 479
Som@@ 479
he's 479
goes 478
ak 478
ved 476
incredi@@ 476
minut@@ 476
sense 476
looks 476
cho@@ 475
mis@@ 475
seri@@ 473
200@@ 473
spac@@ 473
natu@@ 473
show@@ 472
du@@ 472
New 472
kill@@ 471
enough 470
ition 469
tell@@ 468
present@@ 468
world@@ 468
popul@@ 467
wal@@ 467
bod@@ 466
far@@ 465
ran@@ 465
life. 464
rit@@ 464
od 464
direc@@ 463
tro@@ 463
ago, 462
years. 461
energy 461
thin@@ 461
ther, 461
tiv@@ 460
ons 460
happened 458
bring 457
m. 457
ust 456
mas@@ 455
anything 455
For 455
projec@@ 454
fact 454
people, 454
both 454
eg@@ 453
teach@@ 453
As 452
de, 451
cos@@ 450
ones 450
ale 449
Why 449
og@@ 449
hom@@ 448
oce@@ 448
top 448
do. 447
objec@@ 445
ill 444
together 443
Americ@@ 442
ution 442
dollars 442
under@@ 442
left 441
or, 440
keep 440
ey 440
billion 440
almost 440
de. 439
prof@@ 438
20@@ 438
ext@@ 437
atu@@ 437
mem@@ 436
’@@ 436
money 435
within 435
ho@@ 434
technolog@@ 432
stuff 432
begin@@ 432
eri@@ 431
again, 431
month@@ 431
though 431
social 431
looked 430
whether 430
toge@@ 430
that@@ 430
societ@@ 430
gl@@ 430
Al@@ 429
ement 429
asked 429
want@@ 429
hand@@ 428
tur@@ 428
comm@@ 428
ish 428
think, 427
let's 427
lead@@ 426
ist 426
larg@@ 426
gam@@ 426
5 425
deci@@ 425
ven 425
ain 425
hour@@ 425
tim@@ 425
reg@@ 425
data 425
foo@@ 425
dent@@ 425
United 424
mill@@ 424
rou@@ 424
living 424
power@@ 424
couple 423
polit@@ 423
langu@@ 423
ets 422
simple 422
inc@@ 422
put@@ 422
pictu@@ 422
mal 422
i 422
rat@@ 421
ins 421
ll 421
ser@@ 421
pot@@ 419
They're 419
bad 418
people. 418
fu@@ 417
wron@@ 417
som@@ 417
ors 417
much. 417
rag@@ 416
times 416
dic@@ 416
run@@ 415
ay 414
single 414
bot@@ 414
vent@@ 414
six 414
gir@@ 414
ram@@ 413
rec@@ 413
turn 412
ic. 412
global 410
information 410
friend@@ 410
line 410
an. 410
need@@ 409
' 409
ner@@ 408
Indi@@ 408
aw@@ 408
ris@@ 408
hol@@ 408
univers@@ 407
[@@ 407
ick 406
well, 406
list@@ 406
mean 405
heard 404
shap@@ 404
hard 403
cat@@ 403
mean@@ 403
por@@ 403
work. 402
reason 402
contro@@ 402
rese@@ 402
bly 400
basically 400
ame 400
under 399
ass@@ 399
now. 399
tion. 399
Sh@@ 398
ong 398
materi@@ 397
imp@@ 397
cle@@ 397
vie@@ 397
vit@@ 397
goo@@ 396
le. 395
inf@@ 395
space 395
read@@ 395
piece 394
lik@@ 394
food 394
ent. 394
foll@@ 394
already 393
ically 393
land@@ 392
ational 392
must 392
kinds 392
feel@@ 392
ability 391
id@@ 391
dat@@ 391
clim@@ 390
this@@ 390
but@@ 390
ess. 390
high 390
sli@@ 389
100 389
chall@@ 389
gets 389
patter@@ 389
g, 388
ness 388
nor@@ 388
selves 388
ving 388
mag@@ 388
leg@@ 387
shi@@ 387
ic, 386
inste@@ 386
ways 385
s: 385
computer 385
shar@@ 384
val@@ 384
oper@@ 384
continu@@ 383
ver 383
reas@@ 383
e." 383
tot@@ 382
possi@@ 382
able. 381
says, 381
today 381
caus@@ 381
olog@@ 381
learn 380
is. 380
tou@@ 380
ack@@ 380
ank 379
U.@@ 379
ail@@ 379
fic 379
"I 379
science 378
far 378
ther. 377
incre@@ 377
tions 376
until 376
sist@@ 376
dra@@ 376
spi@@ 375
ure 375
ship 375
right? 375
plo@@ 375
bir@@ 375
ght. 374
char@@ 374
jec@@ 374
Ri@@ 374
y's 374
built 373
id 373
care 373
fil@@ 373
dri@@ 373
completely 372
age, 372
ional 372
bar@@ 372
ute 371
picture 371
ut 371
expec@@ 371
real@@ 371
nothing 370
un 370
once 369
life, 369
all. 368
sed 367
age. 367
cra@@ 367
shor@@ 366
arch@@ 366
read 366
] 366
heal@@ 366
ideas 365
rather 365
liter@@ 365
air 365
isn't 365
somebody 364
course 364
,@@ 364
taking 364
inside 364
appe@@ 364
individu@@ 363
build@@ 363
excit@@ 363
environment@@ 362
o-@@ 362
won@@ 362
hundre@@ 362
play@@ 362
dist@@ 362
opportun@@ 361
rem@@ 361
stand@@ 361
year@@ 361
ust@@ 361
seem@@ 361
while 360
fer@@ 360
’s 360
pur@@ 359
student@@ 359
room@@ 359
ble. 359
ies 359
Ear@@ 359
invent@@ 358
wasn't 358
cul@@ 358
important@@ 357
bigg@@ 357
architec@@ 356
hope 356
figure 356
happens 356
possible 356
land 356
school 356
effec@@ 354
engine@@ 354
30 354
guy 353
Africa 352
ys, 352
country 352
tion, 352
OK, 352
0 352
ash@@ 351
Then 351
young 351
lots 351
compl@@ 349
experi@@ 349
bilit@@ 349
Let's 348
mol@@ 347
And, 347
vo@@ 346
ose 346
kin@@ 346
you'll 346
beautiful 346
ands 345
ve. 345
00 345
meas@@ 345
kno@@ 345
vari@@ 345
sign@@ 345
led 344
ering 344
cir@@ 344
everybody 343
ouldn't 343
fic@@ 343
taken 343
Li@@ 343
ick@@ 342
ve, 342
discover@@ 342
sion, 341
of@@ 341
stuff@@ 341
ely, 340
since 340
front 340
couldn't 340
ener@@ 339
exactly 339
Go@@ 339
Yea@@ 338
decided 338
pati@@ 338
g. 337
Ar@@ 337
order 336
ordin@@ 336
future 336
squ@@ 336
answer 336
ax@@ 336
sho@@ 335
book 335
then, 335
arch 335
ists 335
ath 334
room 334
Afric@@ 334
turns 333
ts, 333
"The 333
den 332
ts. 332
public 332
see, 332
run 332
fri@@ 331
ber 331
ur 331
your@@ 331
things, 330
Here 330
centur@@ 330
ese 330
ent, 330
etimes 330
tru@@ 329
sion. 329
st, 329
lit@@ 329
ously 328
scient@@ 328
ward 328
knew 328
anti@@ 327
fiel@@ 326
often 326
cri@@ 325
car 325
behavi@@ 325
ch, 324
ter. 324
well. 324
quick@@ 324
or. 324
business 323
Wor@@ 323
ind 323
allow@@ 323
qual@@ 323
became 323
countr@@ 322
American 322
We've 322
igh@@ 322
problems 321
ace 321
interest@@ 321
takes 321
as, 321
sourc@@ 320
back@@ 320
lif@@ 319
sym@@ 319
open 319
y-@@ 318
we'll 318
self@@ 317
qui@@ 317
again@@ 317
do, 317
ep 316
open@@ 316
TED@@ 316
electr@@ 316
ks. 316
head 316
ion 316
secon@@ 315
top@@ 315
large 315
organiz@@ 315
countries 315
photograph@@ 315
it? 314
moving 314
bas@@ 314
understand@@ 314
elec@@ 314
huge 313
Pe@@ 313
w. 313
ants 313
thro@@ 313
cultu@@ 313
hear 312
midd@@ 312
S. 312
ven@@ 312
d-@@ 312
experience 312
fir@@ 312
moment@@ 312
bet@@ 311
Here's 311
women 311
ate, 311
Z@@ 311
ter, 311
know. 311
mal@@ 311
ad, 311
ow 311
ments 310
appro@@ 310
absolut@@ 310
certain 310
selv@@ 309
positi@@ 309
who@@ 309
des 309
call@@ 309
places 309
port 308
bur@@ 308
someone 308
conce@@ 308
here's 308
obvi@@ 307
perhap@@ 307
group 306
posed 306
gar@@ 306
natural 306
was, 306
loc@@ 305
remember 305
invol@@ 304
pai@@ 304
ally. 304
befor@@ 304
"Well, 304
perf@@ 303
wonderful 303
example, 303
model@@ 303
else 303
las@@ 303
Be@@ 302
project 302
n. 302
ching 302
entire 302
p. 302
see@@ 302
turned 301
2 301
imagine 301
forc@@ 301
process 301
amazing 301
rul@@ 301
program@@ 301
particular 301
actually, 300
sh 299
brea@@ 299
wit@@ 299
works 299
ular@@ 299
uni@@ 299
vic@@ 298
tor 298
day. 298
Do 298
number@@ 298
ult 298
sec@@ 298
sive 298
art 298
word 298
charac@@ 298
protec@@ 298
created 298
Con@@ 297
shows 297
are, 297
relation@@ 297
pan@@ 297
thing@@ 297
reli@@ 297
fro@@ 297
Earth 297
hu@@ 296
gave 296
example 296
diffic@@ 296
Is 296
roc@@ 296
outh 296
driv@@ 295
city 295
ago 295
matter 295
flo@@ 295
biolog@@ 295
along 295
ered 294
based 294
resul@@ 294
00@@ 294
ks, 294
saying 294
gli@@ 294
least 293
percent@@ 293
"O@@ 293
dar@@ 293
ences 292
of, 292
mess@@ 292
0, 291
Gre@@ 291
ever@@ 291
against 291
ner 290
aver@@ 290
cr@@ 290
're 290
says 290
ched 290
physic@@ 290
view 289
tool@@ 289
y: 289
org@@ 289
plic@@ 289
h. 289
self-@@ 289
work, 289
very, 289
mind 289
size 289
amount 289
pul@@ 289
seeing 289
diseas@@ 288
s." 288
ativ@@ 288
Nor@@ 288
iment@@ 288
chem@@ 288
home 287
buy 287
Re@@ 287
health 287
get@@ 287
gh, 287
ben@@ 287
We@@ 287
tivit@@ 287
ad. 287
itu@@ 286
innov@@ 286
children@@ 286
case 286
name 285
recor@@ 285
valu@@ 285
with@@ 285
ere, 285
seven 285
believ@@ 285
communic@@ 285
interested 285
cli@@ 284
Di@@ 284
worked 284
wom@@ 284
defin@@ 284
video 284
early 284
today. 284
ys. 284
happen 284
audi@@ 284
movi@@ 283
aff@@ 283
maj@@ 283
adv@@ 282
n, 282
stop 282
futu@@ 282
lling 282
exampl@@ 282
visu@@ 282
new@@ 282
stories 281
cannot 281
ann@@ 281
planet 281
as. 281
ago. 281
days 280
fully 280
third 280
At 280
hor@@ 280
compas@@ 280
ine. 280
univer@@ 280
wo@@ 279
son 279
recogn@@ 279
jour@@ 279
child 279
oil 278
fish@@ 278
species 278
year, 278
sions 277
sel@@ 277
ren@@ 277
right. 276
scre@@ 276
notic@@ 276
Ever@@ 276
learned 276
inclu@@ 275
Inter@@ 275
knowled@@ 275
ment. 275
bal@@ 275
self. 275
ld 275
fur@@ 275
10@@ 274
expl@@ 274
ine, 274
ling 274
ange 273
year. 273
vers@@ 273
moment 273
job@@ 273
proc@@ 272
thousands 272
Ro@@ 272
state 272
rest 272
ped 272
Or 272
fast@@ 271
cop@@ 270
at's 270
3 270
inspi@@ 270
are. 270
national 269
ulti@@ 269
evi@@ 269
solut@@ 268
house 268
Don@@ 268
tic 268
No, 268
u 268
p, 268
ey, 267
crit@@ 267
studi@@ 267
colo@@ 266
ol 266
predic@@ 266
7 266
vir@@ 266
sun@@ 266
vill@@ 265
ate. 265
phy@@ 265
gs 265
app@@ 264
stri@@ 264
dur@@ 262
del 262
ich@@ 262
sequ@@ 262
ju@@ 261
famili@@ 261
ga@@ 261
ice, 260
tech@@ 260
6 260
answ@@ 260
beh@@ 260
4 260
stra@@ 259
inde@@ 259
dollar@@ 259
CA: 259
Au@@ 259
tt@@ 258
clas@@ 258
ith 257
Is@@ 257
situ@@ 257
men@@ 257
ron@@ 257
emer@@ 255
men 255
15 254
cy@@ 254
certa@@ 254
ople 253
alk 253
gal@@ 253
oni@@ 252
ssi@@ 251
aut@@ 251
40 251
spre@@ 251
ament@@ 251
descri@@ 251
ular 251
invest@@ 250
micro@@ 250
ft 250
Ne@@ 250
rin@@ 250
os 250
technolo@@ 249
busin@@ 249
Oka@@ 249
wonder@@ 248
trav@@ 248
equ@@ 248
carb@@ 247
test@@ 247
fel@@ 247
fis@@ 247
fortun@@ 246
el, 246
ice. 245
Af@@ 245
itut@@ 245
anci@@ 245
tly 244
cit@@ 244
ina 244
che@@ 244
wn@@ 244
Le@@ 243
usu@@ 243
ov@@ 243
cro@@ 243
Bi@@ 243
ere 242
fav@@ 242
ester@@ 241
Su@@ 241
ologi@@ 241
bill@@ 240
stru@@ 240
ature 239
r. 239
om 238
preci@@ 238
az@@ 238
success@@ 238
India 235
ved@@ 235
ban@@ 233
tele@@ 233
i, 233
indu@@ 233
intell@@ 233
peopl@@ 233
moder@@ 232
ia 232
pow@@ 232
nucle@@ 232
OK. 231
anal@@ 231
tem@@ 231
Wi@@ 231
go. 231
Fran@@ 231
throu@@ 230
robot@@ 230
gh 230
test 229
oul@@ 229
De@@ 228
sem@@ 228
S 227
vide@@ 226
tom@@ 226
area 226
cost@@ 225
origin@@ 225
recent@@ 224
50@@ 224
dimension@@ 224
post@@ 221
tec@@ 221
iv@@ 221
pag@@ 221
Pro@@ 220
radi@@ 220
compet@@ 220
super@@ 220
well@@ 219
Man@@ 219
Ex@@ 218
rest@@ 218
urb@@ 218
Mo@@ 218
was@@ 218
B: 218
succ@@ 217
stron@@ 217
countri@@ 217
inform@@ 217
visi@@ 216
Par@@ 216
ele@@ 215
tin@@ 215
V 214
cover@@ 214
capit@@ 213
develo@@ 213
199@@ 213
terri@@ 213
simi@@ 213
actu@@ 212
to, 212
non-@@ 211
hop@@ 210
medi@@ 209
sugg@@ 209
stat@@ 209
med@@ 209
lim@@ 208
pend@@ 208
It@@ 208
enou@@ 208
Com@@ 207
ten 206
dd@@ 206
plor@@ 206
York 206
zz@@ 205
Joh@@ 205
viol@@ 205
n't 204
poll@@ 204
ich 204
9 204
lar@@ 204
ger@@ 204
cal@@ 204
soci@@ 204
8 203
hun@@ 203
dest@@ 202
grand@@ 202
gn@@ 201
ned 201
ch. 201
organis@@ 201
scienti@@ 201
ns 200
Un@@ 200
arti@@ 200
int 200
clu@@ 199
18@@ 199
Car@@ 198
ini@@ 198
era 198
din@@ 197
sing@@ 197
sue 197
amb@@ 196
produce 195
market@@ 195
inv@@ 195
sour@@ 194
necess@@ 194
web@@ 194
Mon@@ 193
effici@@ 193
Se@@ 193
la 193
Ge@@ 193
ession@@ 193
Goog@@ 192
ere@@ 192
organi@@ 192
sop@@ 191
ton 191
Internet 191
ness@@ 191
bit@@ 190
Co@@ 190
ospit@@ 190
figu@@ 189
Africa. 189
team 188
comple@@ 188
digit@@ 188
HI@@ 187
ay@@ 187
25 187
princi@@ 187
underst@@ 186
equi@@ 186
artist@@ 185
not@@ 185
da 185
For@@ 184
mist@@ 184
ure@@ 184
!" 183
softw@@ 183
Bo@@ 183
ove 183
foc@@ 183
Bu@@ 182
dev@@ 182
D 182
pat@@ 181
thous@@ 180
"S@@ 180
rist@@ 180
spo@@ 179
media 179
ple 178
pass@@ 178
essi@@ 177
sens@@ 177
abilit@@ 177
hou@@ 177
suff@@ 177
let@@ 177
rice 176
ost@@ 176
magn@@ 176
past@@ 176
intro@@ 175
povert@@ 175
ate@@ 174
60 174
separ@@ 174
ere. 174
viv@@ 173
kes 173
industri@@ 173
alt@@ 173
sco@@ 172
enor@@ 172
tan@@ 172
inten@@ 172
ir 171
illu@@ 171
peri@@ 171
genet@@ 171
Ste@@ 171
gol@@ 171
luc@@ 170
DNA 170
ogra@@ 170
virtu@@ 170
signific@@ 169
ably 169
Africa, 169
entu@@ 168
compar@@ 168
possibilit@@ 168
medic@@ 168
film 168
confer@@ 167
ete 167
od@@ 167
alc@@ 166
to. 166
ght? 166
insi@@ 166
dise@@ 166
des@@ 166
lav@@ 166
Chris 165
pec@@ 165
500 165
America 165
divers@@ 165
200 165
canc@@ 165
mp@@ 165
ould 165
atmo@@ 164
ybe 164
civi@@ 164
immedi@@ 162
zer@@ 162
ign@@ 161
enom@@ 161
sid@@ 160
bom@@ 160
complic@@ 160
sal@@ 160
12 159
lun@@ 159
e; 158
cru@@ 158
pensi@@ 158
que 158
stu@@ 158
tar@@ 157
ros@@ 157
Si@@ 157
influ@@ 156
Vi@@ 156
publi@@ 156
no, 156
ett@@ 155
1 154
eff@@ 154
discus@@ 154
Euro@@ 154
sic@@ 154
progres@@ 154
cour@@ 154
distri@@ 154
priv@@ 153
hal@@ 153
buil@@ 153
simul@@ 153
gn 152
fine 152
OK@@ 152
beauti@@ 152
idea. 152
Tim@@ 151
esi@@ 151
amp@@ 151
pon@@ 151
atom@@ 151
diag@@ 151
Har@@ 150
AID@@ 149
full@@ 149
18 149
epi@@ 148
Char@@ 148
mini@@ 148
stati@@ 148
sch@@ 148
process@@ 148
chil@@ 148
remem@@ 147
combin@@ 147
contin@@ 147
ho 147
ero@@ 147
quar@@ 146
Ira@@ 146
pren@@ 144
alist@@ 144
/@@ 144
fron@@ 144
autom@@ 143
pet@@ 143
commerci@@ 143
aci@@ 143
i. 142
forest@@ 142
z 142
Rich@@ 142
etim@@ 142
sil@@ 142
mic@@ 142
uro@@ 142
X@@ 142
They@@ 141
teri@@ 141
amaz@@ 141
David 140
glob@@ 140
fantast@@ 140
gri@@ 140
liber@@ 140
"A@@ 139
temper@@ 139
serve 139
C 139
ole 139
Europ@@ 139
Pre@@ 138
Jo@@ 137
ascin@@ 137
contri@@ 136
Secon@@ 136
hap@@ 136
do? 135
100@@ 135
perce@@ 135
environ@@ 134
Yor@@ 134
ye@@ 134
eve 134
bus@@ 133
doll@@ 132
desi@@ 132
sent@@ 132
Per@@ 132
T 131
scal@@ 130
docu@@ 130
fini@@ 130
integr@@ 130
lob@@ 130
limit@@ 129
cause 129
nut@@ 129
abi@@ 128
scen@@ 128
beli@@ 128
conclu@@ 128
ma 128
grav@@ 128
consu@@ 127
anz@@ 127
radic@@ 127
A, 126
motiv@@ 126
ka@@ 126
sul@@ 125
tra 125
log@@ 125
regi@@ 124
determin@@ 124
consider@@ 124
alter@@ 123
sett@@ 123
11 123
child@@ 123
capac@@ 122
Univers@@ 122
controll@@ 122
stori@@ 122
ton@@ 121
colleg@@ 121
"M@@ 120
Sa@@ 120
rap@@ 120
acci@@ 120
prob@@ 118
atur@@ 118
democ@@ 117
ken 117
youn@@ 117
ard@@ 117
divi@@ 117
Po@@ 117
curi@@ 117
improv@@ 116
ready 116
forni@@ 116
tle 116
pal@@ 115
o: 115
collabor@@ 114
abit@@ 114
tran@@ 114
a: 113
scar@@ 112
intellig@@ 112
0. 111
lan@@ 111
consi@@ 111
nu@@ 111
ale. 111
ina, 111
ound 111
stem 111
Qu@@ 111
dig@@ 110
anis@@ 110
colle@@ 109
demo@@ 109
attr@@ 109
ese, 109
A. 108
fici@@ 108
bile 108
tit@@ 107
dec@@ 107
prepar@@ 106
conver@@ 106
inci@@ 106
ero 105
Ben@@ 105
libr@@ 104
del@@ 104
natur@@ 104
rapi@@ 102
vin@@ 102
ene 102
so. 101
thir@@ 101
relig@@ 101
riv@@ 100
fort@@ 100
q@@ 100
norm@@ 99
prov@@ 98
Gu@@ 98
contr@@ 97
ai 97
ell, 96
eli@@ 96
ire 95
sti@@ 95
robot 95
labor@@ 95
propri@@ 95
mul@@ 95
gy 95
bb@@ 95
ina. 95
impres@@ 94
ra 94
net 94
scri@@ 93
ha 93
non@@ 92
batter@@ 92
concentr@@ 92
corr@@ 91
edi@@ 91
err@@ 91
pit@@ 91
perio@@ 90
ane 90
tend@@ 90
ese. 89
All@@ 89
letter@@ 89
photogra@@ 89
con 89
ie 89
enn@@ 88
$@@ 88
Pri@@ 88
neg@@ 87
P 87
sin@@ 85
elet@@ 85
infin@@ 85
import@@ 84
fos@@ 83
spon@@ 83
conf@@ 83
scu@@ 83
etter 82
K 82
mam@@ 82
arriv@@ 82
prote@@ 82
ret@@ 82
batt@@ 82
Gi@@ 81
fat@@ 81
cav@@ 81
ile 80
applic@@ 80
complet@@ 80
Al 79
sai@@ 79
nex@@ 79
base 79
cogn@@ 79
ili@@ 79
ale, 79
dol@@ 79
comb@@ 78
alth 78
san@@ 78
DN@@ 78
stim@@ 78
mac@@ 77
ana 77
gest@@ 77
sult@@ 77
arri@@ 77
tras@@ 77
A: 77
dia 77
stem@@ 77
no. 76
fr@@ 75
O 74
vis@@ 74
da, 74
mani@@ 73
gin@@ 73
]@@ 73
acqu@@ 72
appar@@ 72
ule 72
aria 71
indi@@ 71
tas@@ 71
accor@@ 71
na 70
Come 70
evit@@ 70
facil@@ 70
ia, 70
dop@@ 69
gres@@ 68
lon@@ 68
coul@@ 68
aper@@ 68
nolo@@ 68
Pi@@ 67
auti@@ 67
ond@@ 66
ne 65
dir@@ 65
guar@@ 65
worl@@ 64
e" 64
ross 64
bell@@ 64
a? 63
ans@@ 63
nec@@ 63
uti@@ 62
engin@@ 62
ampl@@ 61
ific@@ 60
ta 60
Lu@@ 60
parti@@ 59
amoun@@ 59
ambi@@ 59
pun@@ 59
di 59
fal@@ 59
sof@@ 58
sia 58
diver@@ 57
line@@ 57
occu@@ 57
spar@@ 57
nost@@ 57
gram@@ 57
ord@@ 56
B 56
a." 56
US@@ 55
due 54
rav@@ 54
emo@@ 54
prim@@ 54
Cre@@ 54
q 54
atter@@ 54
nel 54
E 54
pian@@ 54
X 53
mom@@ 53
Q@@ 53
metri@@ 53
?@@ 52
ica 52
ool@@ 52
mapp@@ 52
veni@@ 51
pens@@ 51
enz@@ 51
nov@@ 50
Pen@@ 50
ra, 49
scor@@ 49
sper@@ 49
hi 49
uman@@ 49
ore. 48
abb@@ 48
ro 47
occup@@ 47
cc@@ 47
pen 47
mass@@ 46
via 46
R 46
Pu@@ 46
ena 46
ool 46
zone 46
abor@@ 45
M 45
ola 45
&@@ 45
o? 45
disc@@ 45
Im@@ 44
sto@@ 44
ore, 43
lett@@ 43
Uni@@ 43
prefer@@ 43
ato 43
ingu@@ 43
dot@@ 43
quest@@ 42
;@@ 42
te, 42
Dav@@ 42
fut@@ 42
archit@@ 42
ano 42
li 42
ette 41
lor@@ 41
ba 41
does@@ 41
:@@ 41
vor@@ 40
sco 40
N 40
pure 39
ani 38
zi@@ 38
gover@@ 38
ra. 38
ole, 38
La 38
sb@@ 38
obi@@ 37
vere 37
tent@@ 37
ample 37
io 37
quant@@ 37
script@@ 37
L 37
asp@@ 37
v 37
pad@@ 36
ri 36
- 35
ether 35
assi@@ 35
AI@@ 35
..@@ 35
led@@ 35
G 35
Mol@@ 35
atori@@ 34
betwe@@ 34
bo 34
nuc@@ 34
ma. 34
ok 33
ita 33
ff 33
velo@@ 33
centr@@ 33
robo@@ 33
iti 32
gran@@ 32
schi@@ 32
dal 32
[ 32
ma, 31
Ter@@ 31
ini 31
gros@@ 31
diverse 30
amer@@ 30
fare 29
che 29
behav@@ 29
da. 29
lla 29
ello 28
etti 28
diff@@ 28
razi@@ 28
tut@@ 28
mo 28
...@@ 27
exac@@ 27
Tran@@ 27
fant@@ 27
va 27
atten@@ 27
vist@@ 27
dimen@@ 27
olo@@ 27
ata 27
termin@@ 26
azz@@ 26
cin@@ 26
opl@@ 26
F 26
H 26
o." 25
lingu@@ 25
ou 25
ico 25
!@@ 25
viron@@ 25
se: 25
erra 25
Cer@@ 24
agn@@ 24
ari 24
gi 24
dren 24
bli@@ 24
tty 24
chie@@ 24
numer@@ 23
petro@@ 23
Y 23
dut@@ 22
altr@@ 22
lo 22
mad@@ 22
pia 22
Q 21
ica, 21
forma@@ 21
ico. 21
ario 21
ino 20
agi@@ 20
mi 20
princip@@ 20
ora 19
000 19
Pot@@ 19
sfi@@ 19
co 19
bile. 18
senti@@ 18
za 18
si 18
uff@@ 18
mili@@ 18
ito 18
Sub@@ 18
% 18
vec@@ 18
quad@@ 18
te. 18
ati 18
unti@@ 17
dare 17
lo. 17
dn't 17
Z 17
otogra@@ 17
ali 17
issi@@ 17
U 17
E, 17
sa 17
co, 17
lavor@@ 17
d'@@ 16
é@@ 16
ico, 16
) 16
ona 16
solo 16
num@@ 16
informa@@ 16
+ 16
merc@@ 15
entr@@ 15
pron@@ 15
arg@@ 15
ura 15
atti@@ 15
ere's 15
/ 15
una 15
ori 14
ro, 14
ni 14
Av@@ 14
fatt@@ 14
titles 14
W 13
ca 13
pes@@ 13
nell@@ 13
bbi@@ 13
ica. 13
li. 13
dice 13
Ed 13
legg@@ 13
ci 12
ris 12
osci@@ 12
noti@@ 12
perc@@ 12
impe@@ 12
li, 12
aver 12
sar@@ 12
det@@ 12
J 12
ö@@ 12
pover@@ 11
I'@@ 11
di, 11
muc@@ 11
blem@@ 11
chi 11
salv@@ 11
fon@@ 11
Quest@@ 11
#@@ 11
ti 11
fu 11
sta 11
guid@@ 11
asc@@ 11
ggi@@ 10
ono 10
ro. 10
rete 10
gett@@ 10
nem@@ 10
non 10
elle 10
capi@@ 10
econ@@ 10
della 10
ga 10
é 10
ca, 9
si, 9
– 9
ata. 9
Ci@@ 9
á@@ 9
posi@@ 9
perch@@ 9
oria 9
— 9
aggi@@ 9
po 8
ece 8
". 8
endo 8
Pos@@ 8
ta. 8
lem 8
ali, 8
eva 8
ete, 8
l'@@ 8
ando@@ 8
elli 8
ali. 8
osc@@ 8
asci@@ 8
cose 8
coup@@ 7
to: 7
cresc@@ 7
Il 7
oi 7
commer@@ 7
TE@@ 7
mare 7
uro 7
j 7
guard@@ 7
dai 7
etti@@ 7
ries@@ 7
che, 7
utto@@ 7
unqu@@ 7
Let@@ 6
eno 6
ava 6
si. 6
fare. 6
matt@@ 6
etto 6
vo 6
zi 6
fa 6
portun@@ 6
quel 6
Tut@@ 6
dott@@ 6
ó 6
ato, 6
dove 6
di. 6
coli 6
uno 6
ü@@ 6
avo 6
agli@@ 6
ù 5
etti, 5
superfici@@ 5
(@@ 5
ora, 5
ando 5
circa 5
ata, 5
etta 5
anzi@@ 5
ca. 5
col 5
inte@@ 5
esi 5
vicin@@ 5
ante 5
co. 5
@@@ 5
ta, 5
zza 5
po, 5
mia 5
enza. 5
eri 5
elo 4
ù@@ 4
gia 4
Cos@@ 4
Per 4
+@@ 4
ñ@@ 4
fond@@ 4
oni 4
allo 4
osa 4
nas@@ 4
ito, 4
ente 4
dire 4
ei 4
í@@ 4
tare 4
Amer@@ 4
azi@@ 4
torn@@ 4
Ve@@ 4
è@@ 4
ogn@@ 4
vi 4
uti 4
ã@@ 4
indi 4
cellul@@ 3
ades@@ 3
che. 3
amo 3
anti 3
tog@@ 3
enza 3
esse 3
ori, 3
tempo 3
ano, 3
Le 3
amento 3
=@@ 3
impar@@ 3
tu 3
pub@@ 3
L'@@ 3
mie 3
parl@@ 3
ó@@ 3
', 3
colt@@ 3
cia 3
rius@@ 3
uto 3
vu@@ 3
ä@@ 3
ede 3
aia 3
ato. 3
^@@ 3
dav@@ 3
é, 3
indi, 3
lizz@@ 3
ucci@@ 3
lo, 2
esist@@ 2
oso 2
â@@ 2
edific@@ 2
ammo 2
strada 2
segu@@ 2
ï@@ 2
avere 2
Dob@@ 2
pie@@ 2
po. 2
acca@@ 2
lui 2
qui 2
ppo 2
“@@ 2
” 2
oro 2
esper@@ 2
alla 2
ella 2
certo 2
–@@ 2
ati. 2
usci@@ 2
veloc@@ 2
ati, 2
* 2
É@@ 2
esser@@ 2
gio@@ 2
anza 2
ento 2
conc@@ 2
tempo. 2
svi@@ 2
Sono 2
", 2
vidu@@ 2
chio 2
prima 2
dov@@ 2
hai 2
emo 2
.000 1
risp@@ 1
persona 1
ć 1
terra 1
forma 1
oli 1
e' 1
ante, 1
conn@@ 1
sap@@ 1
abbi@@ 1
vista 1
usa 1
dett@@ 1
tav@@ 1
anche 1
ú@@ 1
Una 1
ente, 1
ente. 1
ori. 1
Ho 1
Ha 1
Ma 1
bamb@@ 1
amo. 1
amo, 1
strut@@ 1
ifica 1
ricor@@ 1
otti@@ 1
dire, 1
enti 1
º@@ 1
anto 1
oggi@@ 1
˚ 1
igli@@ 1
atura 1
sui 1
’ 1
probabi@@ 1
…@@ 1
affron@@ 1
anni 1
ò@@ 1
à@@ 1
ê@@ 1
rei 1
essi 1
prat@@ 1
cio 1
o... 1
√@@ 1
±@@ 1
%@@ 1
—@@ 1
Con 1
sul 1
Sap@@ 1
ti, 1
cerv@@ 1
anno, 1
zo 1
ano. 1
Da 1
otten@@ 1
qui, 1
sei 1
£@@ 1
# 1
lei 1
ā@@ 1
ç@@ 1
Ç@@ 1
anti, 1
olo 1
donna 1
arsi 1
evi 1
emat@@ 1
setti@@ 1
sare@@ 1
ito. 1
americ@@ 1
enza, 1
c'@@ 1
ti. 1
eggi@@ 1
fa, 1
= 1
possibi@@ 1
sull@@ 1
