di 55137
che 46028
e 42112
a 38570
la 27109
un 26202
i 25169
è 25151
il 24408
in 23608
per 18863
una 17171
non 15340
o 14870
are 14469
le 13830
si 13483
E 13326
o, 12431
o. 12419
a. 11655
s@@ 11253
ato 10664
sono 10557
a, 10554
l'@@ 10452
da 10141
del 9410
in@@ 9218
i@@ 9003
come 8984
ri@@ 8908
con 8807
e. 8724
e, 8614
t@@ 8191
di@@ 8073
più 7984
questo 7955
. 7848
ano 7602
se 7549
della 7466
ci 7455
i, 7233
ma 7208
e@@ 6912
ar@@ 6898
er@@ 6872
to 6857
"@@ 6813
, 6694
i. 6568
S@@ 6566
d@@ 6202
a@@ 6170
ha 6111
st@@ 5977
v@@ 5962
al 5886
o@@ 5862
mi 5813
ale 5787
nel 5697
f@@ 5641
lo 5456
gli 5410
pi@@ 5174
g@@ 5173
am@@ 5093
m@@ 5082
-- 5076
av@@ 4992
ate 4992
or@@ 4989
es@@ 4953
c@@ 4939
u@@ 4928
b@@ 4914
l@@ 4911
an@@ 4910
re@@ 4825
era 4796
Ma 4714
ho 4709
r@@ 4668
questa 4658
con@@ 4616
cosa 4613
molto 4592
dei 4565
p@@ 4559
al@@ 4460
delle 4405
co@@ 4401
ti 4362
it@@ 4343
ando 4269
: 4215
on@@ 4192
D@@ 4178
ci@@ 4144
ere 4108
alla 4088
at@@ 4072
n@@ 4068
abbiamo 4051
cui 3999
Non 3977
vi@@ 3952
essere 3937
azione 3921
C@@ 3868
si@@ 3843
ica 3786
vi 3775
ata 3774
re 3756
? 3710
anche 3706
M@@ 3689
per@@ 3680
ati 3672
en@@ 3667
pro@@ 3631
et@@ 3624
ic@@ 3606
so 3603
ol@@ 3589
pre@@ 3586
quando 3555
ver@@ 3553
zione 3532
La 3524
ità 3483
dell'@@ 3463
de@@ 3461
ono 3441
loro 3438
perché 3434
ad 3430
chi@@ 3425
vol@@ 3420
par@@ 3356
ore 3286
hanno 3269
fare 3262
amente 3249
Il 3241
solo 3214
ti@@ 3197
col@@ 3181
A@@ 3171
su 3170
uno 3164
est@@ 3107
persone 3096
mi@@ 3079
fi@@ 3076
im@@ 3055
T@@ 3048
io 3045
tutto 3036
B@@ 3029
N@@ 3012
ro@@ 3003
ne 2999
ai 2999
quello 2995
bi@@ 2989
sol@@ 2976
do 2972
gi@@ 2965
cre@@ 2950
em@@ 2932
att@@ 2927
così 2912
un@@ 2875
us@@ 2870
'@@ 2842
P@@ 2839
te 2816
tutti 2815
po@@ 2812
ra@@ 2799
zz@@ 2789
nella 2759
sia 2727
ed 2725
ò 2724
ent@@ 2719
va 2716
de 2702
modo 2700
li@@ 2656
mo@@ 2652
ett@@ 2650
ente 2625
E@@ 2619
as@@ 2605
anni 2599
O@@ 2598
un'@@ 2589
♫ 2556
enti 2547
ciò 2544
se@@ 2540
Questo 2517
and@@ 2506
L@@ 2495
queste 2486
os@@ 2486
cose 2465
ta 2464
ico 2460
fatto 2450
pot@@ 2446
ac@@ 2439
el@@ 2436
questi 2433
qu@@ 2413
all'@@ 2392
ap@@ 2391
ter@@ 2390
E' 2372
z@@ 2357
dic@@ 2357
R@@ 2355
su@@ 2347
amo 2340
ali 2337
endo 2336
dis@@ 2333
far@@ 2326
enza 2321
ag@@ 2310
stato 2291
man@@ 2288
mio 2279
- 2279
sta 2278
inter@@ 2243
all@@ 2242
ogni 2242
siamo 2228
oc@@ 2220
ot@@ 2214
ch@@ 2214
for@@ 2211
cor@@ 2197
V@@ 2187
sione 2177
li 2172
anno 2169
parte 2154
no@@ 2151
F@@ 2149
mo 2138
due 2133
mia 2122
ut@@ 2120
chi 2117
min@@ 2115
ale. 2096
ven@@ 2096
ist@@ 2077
ad@@ 2076
mondo 2063
sc@@ 2061
car@@ 2047
com@@ 2041
ur@@ 2036
prima 1999
anti 1996
-@@ 1989
c'è 1982
é 1965
Quindi 1964
dove 1959
G@@ 1950
sp@@ 1943
do@@ 1941
può 1935
dal 1921
ess@@ 1919
der@@ 1914
ori@@ 1907
is@@ 1898
ant@@ 1897
cer@@ 1872
ora 1871
sul 1869
ori 1857
... 1856
ari@@ 1856
poi 1849
In 1833
qualcosa 1822
tu@@ 1818
pe@@ 1812
ino 1793
me 1780
ete 1771
bu@@ 1766
str@@ 1760
cos@@ 1758
à 1749
tra 1741
almente 1737
H@@ 1737
sulla 1736
noi 1731
ale, 1719
zioni 1719
Se 1706
pens@@ 1699
ante 1697
ec@@ 1680
ric@@ 1679
are. 1678
1@@ 1674
fer@@ 1672
om@@ 1670
degli 1668
". 1656
' 1651
br@@ 1649
fin@@ 1643
gen@@ 1642
L'@@ 1635
qui 1629
tr@@ 1629
" 1627
h@@ 1619
ing@@ 1618
ll@@ 1615
mai 1611
o? 1592
quel 1587
etto 1585
ato. 1580
vedere 1580
zion@@ 1572
Questa 1571
gu@@ 1568
quella 1563
davvero 1543
k@@ 1543
ca@@ 1540
ment@@ 1534
dov@@ 1529
ra 1528
ass@@ 1511
ero 1507
anz@@ 1507
sto 1500
vita 1491
meno 1485
cont@@ 1477
no 1472
por@@ 1472
te@@ 1468
dalla 1465
ma@@ 1464
alt@@ 1464
alle 1462
lavor@@ 1461
fic@@ 1459
ancora 1452
acc@@ 1452
ato, 1450
ina 1448
mor@@ 1441
K@@ 1423
È 1418
possiamo 1415
uman@@ 1413
suo 1413
mon@@ 1413
nostro 1412
gli@@ 1409
lo@@ 1404
ati@@ 1394
altro 1392
fa 1391
Qu@@ 1391
quanto 1389
grande 1385
parl@@ 1385
ava 1382
azioni 1381
tras@@ 1355
ento 1353
mostr@@ 1349
ici 1348
are, 1346
le@@ 1339
ve@@ 1337
can@@ 1336
ev@@ 1334
sua 1334
ine 1324
iamo 1320
ni@@ 1313
d'@@ 1313
gente 1313
sa@@ 1312
eva 1312
sempre 1309
Sono 1308
Per 1299
Ho 1291
ari 1290
nostra 1286
uto 1275
Ed 1273
aggi@@ 1272
erano 1270
ce 1267
I@@ 1266
ve 1265
Ci 1259
port@@ 1258
ser@@ 1257
y@@ 1257
ne@@ 1256
e? 1251
tre 1249
pass@@ 1245
ia 1244
cu@@ 1243
2@@ 1242
nell'@@ 1236
dire 1236
op@@ 1230
co, 1228
I 1228
In@@ 1228
ved@@ 1225
rit@@ 1225
tutte 1224
met@@ 1220
pres@@ 1215
ra, 1213
ris@@ 1205
ra. 1205
pri@@ 1204
e' 1202
ast@@ 1201
fon@@ 1198
er 1198
ab@@ 1190
co. 1189
tipo 1189
tempo 1187
avere 1187
ul@@ 1182
pen@@ 1177
mol@@ 1175
int@@ 1173
amento 1172
qualche 1170
inizi@@ 1168
to@@ 1165
." 1164
pa@@ 1163
Si 1162
essi@@ 1159
ell@@ 1155
sci@@ 1154
nei 1153
olo 1153
ed@@ 1148
senza 1147
diamo 1143
aff@@ 1138
ito 1134
circa 1133
dere 1133
proprio 1132
Perché 1130
funzion@@ 1129
end@@ 1126
dopo 1124
chiam@@ 1123
Abbiamo 1122
fu@@ 1118
J@@ 1116
vo@@ 1113
du@@ 1110
ire 1106
voi 1105
do. 1105
aggio 1104
quindi 1102
sa 1102
sor@@ 1097
?" 1093
ini 1093
3@@ 1091
gener@@ 1084
gh@@ 1084
post@@ 1084
sic@@ 1083
A 1083
ir@@ 1081
cit@@ 1080
cambi@@ 1080
e: 1078
W@@ 1076
il@@ 1074
possono 1074
ren@@ 1072
ali@@ 1071
stata 1068
esse 1068
o: 1067
volta 1066
Le 1066
ten@@ 1065
cent@@ 1064
à, 1062
punto 1059
! 1058
verso 1054
Come 1050
altri 1045
one 1043
evo 1039
nelle 1039
avo 1036
mar@@ 1035
po' 1035
avano 1031
ion@@ 1028
à. 1025
abi@@ 1020
ole 1020
re, 1011
tut@@ 1010
ro 1010
TED 1004
cas@@ 1002
molti 1002
import@@ 1000
stru@@ 1000
iti 998
so@@ 997
ì, 994
.@@ 993
fatt@@ 987
fac@@ 987
U@@ 986
ita 984
che, 981
costru@@ 979
Quando 978
tt@@ 975
Ora, 975
stesso 972
essi 970
mat@@ 969
amente, 968
uti 968
uc@@ 967
5@@ 962
Un 961
cal@@ 956
Mi 954
pag@@ 954
storia 951
deci@@ 949
bile 949
cam@@ 945
acci@@ 944
anza 944
sistema 942
ru@@ 942
a? 941
dall'@@ 937
segu@@ 936
All@@ 936
to, 936
cost@@ 935
bisogno 934
reg@@ 934
indi@@ 933
altre 932
ca 931
dire@@ 928
zza 927
bell@@ 926
prov@@ 925
negli 924
no, 924
nostri 923
ai@@ 920
do, 919
ament@@ 918
tro@@ 917
ite 916
au@@ 913
potete 912
re. 912
pol@@ 911
to. 909
guard@@ 907
me@@ 905
are@@ 905
pren@@ 903
Così 898
eff@@ 896
4@@ 894
vit@@ 891
divent@@ 890
eg@@ 890
ambi@@ 889
be@@ 889
viene 889
na 888
ani 887
test@@ 886
voglio 884
eri@@ 883
mus@@ 883
no. 882
arriv@@ 880
agli 880
ente. 879
ese 877
Ecco 877
person@@ 875
fuori 874
aut@@ 874
ano. 874
rat@@ 874
vo 874
zione. 872
stiamo 869
evol@@ 868
econom@@ 863
ro, 862
stanno 862
trov@@ 858
ica, 857
comun@@ 857
interess@@ 857
Quindi, 853
and 852
pl@@ 852
unque 851
ov@@ 849
ica. 849
andare 848
7@@ 848
ola 848
lasci@@ 847
an 846
cono 845
lo. 843
differ@@ 840
pi 839
posto 839
continu@@ 838
fino 838
aveva 836
alcuni 835
ario 833
sarebbe 832
visto 831
gra@@ 831
mentre 830
d 829
quale 829
fosse 827
mento 825
ante. 824
lavoro 824
sal@@ 822
val@@ 822
colo@@ 821
son@@ 821
fu 821
pun@@ 820
y 816
ti, 816
sper@@ 814
ità. 813
cominci@@ 811
Una 810
milioni 809
immagin@@ 807
zi@@ 807
tra@@ 807
cat@@ 806
gg@@ 806
8@@ 805
stra@@ 797
fine 796
sen@@ 792
penso 792
mer@@ 791
sioni 790
tem@@ 790
azion@@ 789
ali. 786
problema 785
diver@@ 785
pes@@ 783
legg@@ 782
avete 781
creare 780
ano, 780
insegn@@ 778
impar@@ 775
azione. 771
og@@ 771
An@@ 770
idea 769
sei 767
so, 766
alizz@@ 766
quelle 766
migli@@ 764
dent@@ 764
pos@@ 763
mente 762
nu@@ 760
aiut@@ 760
primo 758
itu@@ 757
pas@@ 757
ber@@ 756
mondo. 753
atto 752
co 750
gior@@ 748
anni. 746
guar@@ 746
li. 745
già 744
eri 741
capi@@ 741
a: 740
tanto 739
det@@ 739
specie 738
conosc@@ 737
bas@@ 737
molte 736
esi 736
ene 736
n 735
dav@@ 733
ragazz@@ 733
credo 732
ali, 732
St@@ 731
evano 729
6@@ 728
studi@@ 726
on 723
bambini 723
anni, 723
; 723
Talk 722
chio 720
Lo 719
qual@@ 719
zione, 718
si. 718
detto 716
si, 716
volte 716
realtà 716
dice 714
ta@@ 713
9@@ 713
Al@@ 712
emo 710
cell@@ 709
Subtitles 708
Transcript: 708
miei 705
nuovo 704
le. 704
rac@@ 703
ti. 701
sco@@ 701
parlare 700
fil@@ 700
capire 699
bar@@ 699
arti@@ 699
enzi@@ 698
uti@@ 698
forse 697
arsi 697
ang@@ 697
le, 696
attraverso 696
propri@@ 696
tutta 695
sero 695
qualcuno 695
soci@@ 694
cresc@@ 692
azione, 690
Ora 689
ura 689
form@@ 688
ran@@ 688
prendere 685
vent@@ 685
iment@@ 683
potrebbe 683
sarà 682
w@@ 681
giorno 679
colo 676
esist@@ 676
speci@@ 676
mag@@ 675
pensare 675
ità, 675
", 674
stessa 674
rete 673
acca@@ 673
dai 672
lu@@ 671
ide@@ 671
dobbiamo 670
avuto 669
po, 669
sap@@ 668
momento 668
ff@@ 666
doman@@ 663
lui 663
ani@@ 662
allo 662
acqu@@ 661
leg@@ 660
ore, 660
quest@@ 658
entr@@ 657
veramente 656
divers@@ 656
ma, 655
agli@@ 655
ore. 655
dit@@ 655
ata. 655
stati 654
amo, 652
som@@ 652
pic@@ 651
sop@@ 651
anti@@ 650
alcune 650
grandi 650
facci@@ 649
ssi@@ 649
altra 648
da@@ 648
ini@@ 647
Per@@ 646
Io 646
dati 645
Di@@ 644
senti@@ 642
pr@@ 642
sist@@ 642
ativ@@ 641
sce 641
piac@@ 640
importante 640
forma 638
fre@@ 636
ati. 636
Che 635
informa@@ 635
ro. 635
tecnologia 634
s 634
siano 633
remmo 633
giust@@ 632
ram@@ 631
ggi@@ 630
spi@@ 629
ici@@ 629
quali 628
gia 625
abbastanza 625
gio@@ 625
sot@@ 624
uzione 623
.000 623
% 623
tor@@ 623
atti@@ 622
erò 622
via 622
fanno 622
etro 621
enze 619
10 618
natur@@ 616
ich@@ 616
materi@@ 615
gran@@ 615
19@@ 615
rel@@ 614
enz@@ 613
ente, 613
certo 612
te. 611
so. 611
t 608
controll@@ 607
nostre 607
ante, 606
C'è 606
scri@@ 606
azz@@ 604
Beh, 604
sch@@ 603
atori 601
iti@@ 600
vere 600
h, 600
tecnologi@@ 599
acqua 599
lav@@ 597
problem@@ 596
sim@@ 596
mett@@ 594
dev@@ 594
ora, 594
id@@ 594
disc@@ 593
gr@@ 592
grado 592
oggi 591
tivo 590
ben@@ 590
not@@ 589
present@@ 588
sion@@ 587
zzo 587
Voglio 586
inc@@ 586
viv@@ 584
peri@@ 583
part@@ 582
oper@@ 580
dist@@ 580
avamo 579
vic@@ 579
Av@@ 579
Ch@@ 578
semplic@@ 577
quelli 576
menti 576
enza. 576
arvi 575
ate, 575
allora 574
dato 574
go 572
5 572
far 572
ei 572
ì 571
amo. 571
rest@@ 570
osserv@@ 570
fron@@ 570
uni@@ 569
lun@@ 568
quattro 565
u 565
dare 564
go@@ 564
program@@ 564
cap@@ 563
maggior 563
avevo 562
giorn@@ 562
arono 562
erà 561
li, 560
problemi 560
facendo 560
te, 559
alc@@ 558
prend@@ 557
don@@ 557
de. 557
aspett@@ 556
energia 554
perchè 554
sistem@@ 553
dalle 553
pu@@ 552
’@@ 551
realizz@@ 551
tiamo 551
oggi@@ 549
ette 549
quasi 549
lor@@ 548
etti@@ 548
esso 547
fat@@ 546
Nel 546
tri@@ 545
ga 545
ati, 545
ig@@ 544
mu@@ 544
qui, 543
cir@@ 543
tratt@@ 543
amb@@ 543
ness@@ 541
aria 540
riusci@@ 540
senso 540
san@@ 539
coll@@ 539
c'@@ 538
pan@@ 536
rei 536
bb@@ 536
sem@@ 536
famigli@@ 535
sotto 535
posso 535
sape@@ 535
Gi@@ 534
ù 534
enza, 533
progett@@ 533
prodot@@ 533
persona 533
termin@@ 533
usare 532
prat@@ 532
50 530
raccont@@ 529
dire, 529
abb@@ 528
sull'@@ 528
prossi@@ 527
risult@@ 527
tele@@ 527
numero 526
secondo 526
messo 525
mettere 525
edi@@ 525
insieme 524
torn@@ 523
trovare 523
l 523
particol@@ 522
ere, 522
dir@@ 521
mal@@ 521
chied@@ 520
spieg@@ 520
gn@@ 520
riguar@@ 519
men@@ 519
piccolo 518
Un@@ 518
fos@@ 518
emente 518
amp@@ 517
ecco 517
fl@@ 517
succ@@ 516
progetto 516
etti 515
popol@@ 515
elle 515
oi 515
ello 514
Com@@ 514
vero 513
bili 513
po. 513
cin@@ 512
vostro 511
settiman@@ 511
ma. 510
k, 510
gioc@@ 510
stu@@ 509
deve 508
organizz@@ 507
vu@@ 506
scal@@ 505
Cosa 505
suoi 505
mondo, 504
remo 504
vist@@ 503
è, 502
esempio 502
gre@@ 501
Gu@@ 500
cur@@ 500
stori@@ 499
svilupp@@ 499
piuttosto 498
Gli 498
anim@@ 497
atore 496
ione 496
consider@@ 496
ere@@ 495
contro 495
Su@@ 495
tiv@@ 494
Mar@@ 494
Poi 494
gono 493
semplicemente 493
ate. 492
tal@@ 492
glob@@ 491
macch@@ 491
Con@@ 491
sulle 491
ata, 491
dut@@ 491
di. 490
invece 490
state 490
scu@@ 490
sost@@ 490
uom@@ 488
20 488
rà 488
di, 487
casa 486
vengono 486
dar@@ 485
sui 485
costruire 485
ator@@ 485
nas@@ 485
icamente 484
ost@@ 484
possibile 484
h 484
lungo 483
questo, 483
se, 483
sembr@@ 482
Era 482
ella 482
facciamo 481
meglio 481
ina. 481
signific@@ 480
oni 480
tura 480
vogli@@ 480
ogget@@ 480
scel@@ 479
ere. 478
metter@@ 478
bre@@ 478
viamo 478
compl@@ 478
raggiun@@ 477
gruppo 477
domanda 476
200@@ 476
possibi@@ 475
serv@@ 475
po 475
de, 474
dollari 474
Pro@@ 473
pubbl@@ 472
scor@@ 471
è@@ 470
lit@@ 470
giu@@ 469
asp@@ 469
ener@@ 468
appena 468
dur@@ 468
risol@@ 468
lì 468
oria 467
nello 467
ban@@ 467
Pen@@ 467
inf@@ 467
tratta 467
questo. 466
polit@@ 465
comp@@ 465
esper@@ 463
sembra 463
bri@@ 462
0@@ 462
vita. 462
necess@@ 462
cul@@ 462
fr@@ 461
lei 461
amente. 461
durante 461
spazio 460
fotogra@@ 460
ici, 459
defin@@ 459
arci 459
ner@@ 458
medi@@ 458
troppo 458
proc@@ 458
possa 458
abbia 457
vedete 457
computer 457
Vi 456
foto 456
vostra 456
reste 456
3 455
"S@@ 454
occup@@ 454
qui. 454
liber@@ 454
inci@@ 454
avevano 453
amenti 453
uso 452
strut@@ 452
me, 451
cambiare 451
anti. 451
vin@@ 451
quei 451
Quello 451
citt@@ 451
endere 450
ede 450
comport@@ 450
caso 450
ici. 449
agi@@ 449
4 448
ovvi@@ 448
ina, 448
m 448
ché 447
rebbero 447
cervello 447
dello 446
città 446
aver 446
vec@@ 446
elli 445
ori. 444
sapete, 444
età 444
fa, 443
ill@@ 442
oro 441
bile. 441
ogli@@ 440
uomo 440
mezzo 440
chiar@@ 440
probabilmente 439
Stati 438
durre 438
quant@@ 438
americ@@ 438
idee 438
oltre 438
ri 438
super@@ 438
Grazie 437
gere 437
k 437
lin@@ 437
giov@@ 436
vis@@ 436
elettr@@ 435
2 435
siete 435
dat@@ 435
mano 434
svilu@@ 434
bene 434
atu@@ 434
significa 433
simi@@ 433
Questi 433
rag@@ 433
cio 432
mem@@ 432
um@@ 431
rappresent@@ 431
osc@@ 430
un'altra 429
positi@@ 429
bli@@ 429
completamente 429
corso 428
zio 428
ron@@ 428
ob@@ 428
ultimi 427
miliardi 427
lingu@@ 427
qualcos@@ 427
cc@@ 427
veloc@@ 426
ori, 426
segn@@ 425
oce@@ 425
succed@@ 424
cli@@ 423
cinque 423
pianet@@ 422
rispon@@ 422
hai 422
più@@ 421
imp@@ 421
vista 421
Sap@@ 420
successo 420
sti@@ 420
esempio, 420
intellig@@ 420
oso 419
nuov@@ 418
arri@@ 418
cose. 418
livello 418
vediamo 417
piccola 416
,@@ 416
get@@ 416
'è 416
bo@@ 416
perio@@ 415
Ha 415
chiamato 413
el 413
hi@@ 412
compr@@ 412
capit@@ 412
des@@ 412
visi@@ 412
ce@@ 411
qualsiasi 411
malatti@@ 411
fe@@ 410
00 410
bilit@@ 410
r 410
da, 410
puoi 410
da. 408
niente 408
line@@ 408
nessuno 408
Grazie. 407
effetti 406
univers@@ 406
sent@@ 406
20@@ 406
sin@@ 406
cio@@ 405
difficile 405
Penso 405
g 404
ann@@ 403
6 403
industri@@ 402
à@@ 402
archit@@ 401
mas@@ 401
ucci@@ 401
incredi@@ 401
ge@@ 401
er, 400
sar@@ 400
ement@@ 400
imento 400
nuova 400
unque, 400
ragion@@ 399
uro 399
servi@@ 399
Qui 399
diff@@ 397
chiamo 397
x@@ 396
abbi@@ 396
din@@ 396
bl@@ 396
quest'@@ 396
portare 395
cia 395
poter 395
New 395
pubblic@@ 394
plic@@ 394
sappiamo 394
ricerca 394
mostra 394
For@@ 393
otti@@ 393
evamo 393
situ@@ 393
enti. 393
colleg@@ 392
cri@@ 392
paio 392
net@@ 392
almente, 392
mili@@ 392
pazi@@ 392
iniziato 391
TED@@ 391
cercando 391
farlo 391
giro 391
mette 391
devo 390
atter@@ 390
piace 390
mad@@ 390
meravigli@@ 389
app@@ 389
attiv@@ 388
bambin@@ 388
col 388
emo@@ 388
tan@@ 387
Mol@@ 387
anno. 387
picco@@ 387
ta, 387
pure 387
comput@@ 386
blo@@ 386
iv@@ 385
vir@@ 385
conosci@@ 385
perch@@ 384
bisog@@ 384
Siamo 384
spesso 384
preso 383
dono 383
risp@@ 383
ando@@ 382
mangi@@ 382
sur@@ 382
immagine 382
ta. 381
innov@@ 381
Par@@ 381
ni 381
fis@@ 381
dott@@ 380
accor@@ 380
prof@@ 380
cl@@ 380
Bene, 380
l'inter@@ 380
schi@@ 380
conto 380
tare 379
0, 379
ete, 379
dete 379
sosten@@ 379
fantast@@ 378
ana 377
condivi@@ 377
sapere 377
ries@@ 377
aper@@ 376
atura 376
gover@@ 376
Cos@@ 376
movi@@ 376
s, 375
ricon@@ 375
pp@@ 375
luce 375
Pu@@ 375
y, 375
ò, 374
vorrei 374
Africa 373
c'era 373
enti@@ 373
...@@ 373
bbero 373
ile 373
ulti@@ 373
ute 372
off@@ 372
diversi 371
tav@@ 370
porta 370
pal@@ 370
letter@@ 369
arlo 369
Ar@@ 369
Pot@@ 369
er. 369
grazie 368
base 368
tec@@ 368
sione. 368
tu 368
org@@ 368
edific@@ 367
utilizz@@ 367
dentro 367
vari@@ 367
lon@@ 366
stava 366
lla 366
scopri@@ 366
pad@@ 366
lavorare 365
aver@@ 364
dollar@@ 364
petroli@@ 364
Perch@@ 364
pon@@ 363
sfi@@ 363
30 362
adesso 362
Queste 362
sh@@ 362
etta 362
invent@@ 362
issi@@ 362
0 361
ito. 361
7 361
interessante 361
inten@@ 361
ricor@@ 361
se: 360
ettiv@@ 360
ì. 360
obi@@ 359
impe@@ 359
nazion@@ 359
fondament@@ 359
sog@@ 359
fond@@ 359
modello 359
oni@@ 358
Potete 358
mie 358
quell'@@ 358
stra 358
l'idea 357
grup@@ 357
lmente 357
futuro 357
capacità 357
nem@@ 357
ghi@@ 357
dizion@@ 356
é@@ 355
me. 355
spon@@ 355
libro 355
incontr@@ 355
ero@@ 354
nuove 354
altri@@ 354
oli 354
batter@@ 354
tuo 354
Di 353
produ@@ 353
zzi 353
avrebbe 353
risposta 353
a' 352
ricord@@ 351
zi 351
Ve@@ 351
semplice 350
uta 350
100 350
ricer@@ 350
individu@@ 349
stud@@ 349
diverse 349
abilità 349
ammo 348
sett@@ 348
tur@@ 348
rem@@ 347
sbagli@@ 347
poco 347
spazi@@ 347
ace 346
carb@@ 346
erebbe 346
esperienza 346
[@@ 346
felic@@ 346
diventare 345
fatti 345
cerc@@ 345
lo, 345
succede 345
agn@@ 345
mill@@ 344
anti, 344
k. 344
assi@@ 343
anzi@@ 343
ba 343
invest@@ 342
ate@@ 342
ito, 341
parti@@ 341
conc@@ 341
Co@@ 341
af@@ 340
posti 340
design@@ 340
sing@@ 340
scoperto 339
sare@@ 339
seconda 339
sentito 339
armi 339
cammin@@ 339
affron@@ 338
pensi@@ 338
proget@@ 338
zo 338
struttura 338
dot@@ 338
superfici@@ 338
comunic@@ 338
nome 337
forza 337
società 337
tempo. 337
creato 337
us 336
eno 336
bene. 336
Ciò 336
mapp@@ 336
migliore 335
é, 335
ragazzi 335
macchina 335
Possiamo 335
chiama 335
scen@@ 334
mani@@ 334
princip@@ 334
ando, 333
tar@@ 333
aggiun@@ 332
dovuto 332
anno, 332
possibilità 332
ando. 332
comunità 331
pensato 330
sione, 330
donne 330
posi@@ 330
bene, 330
d, 330
così. 330
vicin@@ 329
appar@@ 329
Ne@@ 329
noi. 328
enti, 328
detto, 328
Ri@@ 327
opportun@@ 327
itori 327
atten@@ 327
altro. 327
essa 326
riv@@ 326
izi@@ 326
forma@@ 326
centro 326
design 326
ismo 325
vivere 325
persone, 325
sue 325
sacco 324
rivol@@ 324
tempo, 324
', 323
ena 323
paesi 323
miglior@@ 323
desider@@ 323
uro@@ 323
stess@@ 323
ricev@@ 322
causa 322
ice 322
serie 322
avev@@ 321
pio 321
esattamente 321
bbi@@ 321
inizio 321
mass@@ 320
etti, 320
muov@@ 320
modell@@ 320
che. 320
interno 320
perf@@ 319
iche 319
bbe 319
corr@@ 318
asc@@ 318
ologi@@ 318
ascolt@@ 318
osa 318
dimen@@ 318
azien@@ 317
salv@@ 317
metri@@ 317
den@@ 317
Dov@@ 317
ò@@ 317
Tutti 317
faccio 317
soff@@ 317
illu@@ 316
“@@ 316
coli 316
figli@@ 316
animali 316
spe@@ 316
Pri@@ 315
scienzi@@ 315
influ@@ 315
guardare 315
ico. 315
vita, 315
storie 315
conten@@ 315
evi 314
Ogn@@ 314
trovato 314
maggi@@ 314
secon@@ 313
Indi@@ 313
intorno 313
saranno 313
mess@@ 313
processo 313
vuole 313
tipi 313
straordin@@ 312
tua 312
pie@@ 312
vor@@ 312
ci. 311
elo 311
es 311
fa. 311
fav@@ 310
vi. 310
cibo 310
rius@@ 310
ca, 309
portato 309
ca. 309
vogliamo 309
ord@@ 309
ard 309
Cer@@ 309
o." 309
cercare 308
pia 308
scrit@@ 308
posizione 308
terra 308
tot@@ 308
tim@@ 308
cominciato 308
eci 307
dovrebbe 307
ingegn@@ 307
ge 307
sola 307
mis@@ 307
otten@@ 307
O 307
nuovi 306
numer@@ 306
aggi 306
l’@@ 305
rebbe 305
potere 305
prote@@ 305
j@@ 304
forni@@ 304
soprav@@ 304
conn@@ 304
gest@@ 303
giorni 303
migliaia 303
fel@@ 303
dirit@@ 303
rapi@@ 303
success@@ 303
cambiamento 302
profon@@ 302
chie@@ 302
là 302
o-@@ 302
non@@ 302
ona 301
compag@@ 301
disegn@@ 301
gran 300
th@@ 300
rap@@ 300
quad@@ 300
Mon@@ 299
arrivare 299
Da 299
alità 299
assolut@@ 299
Ter@@ 299
a." 299
Im@@ 298
buona 298
fam@@ 298
erra 298
modi 297
scar@@ 297
noi, 297
Z@@ 297
aument@@ 297
alto 297
natura 297
vide@@ 297
riman@@ 296
prefer@@ 296
ign@@ 296
que 296
mare 296
atori@@ 296
persone. 296
la@@ 295
pron@@ 295
o... 295
tit@@ 295
gioco 295
cervell@@ 295
Con 294
Americ@@ 294
razione 294
or 294
strada 294
d. 294
pover@@ 293
deva 293
parla 293
fare. 292
sano 292
questione 292
luog@@ 292
usa 292
confer@@ 291
ard@@ 291
pianeta 291
fun@@ 291
tutto, 290
moment@@ 290
cav@@ 290
en 290
dol@@ 289
scritto 289
fortun@@ 289
lanci@@ 289
eggi@@ 289
scienza 289
corpo 289
err@@ 288
risor@@ 288
ottenere 288
regi@@ 288
compren@@ 288
E, 288
Tutto 287
Ec@@ 287
ese. 287
ane 287
metri 287
veni@@ 287
realt@@ 287
nor@@ 286
Dobbiamo 286
igli@@ 286
scuola 286
eli@@ 286
bambino 286
piu' 285
consu@@ 285
arg@@ 285
suon@@ 285
Anche 284
primi 284
Hanno 284
b 284
Lu@@ 284
matemat@@ 283
ret@@ 283
donna 283
parti 283
piccoli 283
l'un@@ 283
usci@@ 282
potuto 282
Credo 282
asse 282
finanzi@@ 282
esser@@ 282
essero 282
ece 281
denar@@ 281
ultimo 281
media 280
anto 280
ragione 280
vi, 280
campo 280
luogo 280
avrei 279
mercato 279
viol@@ 279
Noi 279
] 279
e." 279
ranno 279
film 279
15 278
futuro@@ 278
ancor@@ 278
Unit@@ 278
evi@@ 277
responsa@@ 277
ecc@@ 277
ppo 277
cellul@@ 277
ese, 277
ust@@ 277
immagini 277
compas@@ 277
tas@@ 276
incredibi@@ 276
metà 276
ger@@ 276
gar@@ 276
tent@@ 276
guerra 276
serve 275
cogli@@ 275
potrebbero 275
ativo 275
za 275
esim@@ 275
impi@@ 274
hi 274
Pi@@ 274
y. 274
dovremmo 273
alist@@ 273
accio 273
notizi@@ 272
diventa 272
enorme 272
esplor@@ 272
chiesto 272
ific@@ 272
lett@@ 272
Vi@@ 271
sit@@ 271
ogn@@ 271
stim@@ 270
uff@@ 270
fal@@ 270
invol@@ 269
scoper@@ 269
guid@@ 269
ico, 269
ule 269
to: 269
Ma@@ 268
ia, 268
fur@@ 268
bal@@ 268
Al 267
vostr@@ 267
norm@@ 267
ì@@ 267
ession@@ 267
s. 266
ele@@ 266
glio 266
9 266
be 266
dett@@ 265
ù@@ 265
qui@@ 265
merc@@ 264
8 264
matt@@ 264
asci@@ 264
bor@@ 263
gal@@ 263
ros@@ 261
inv@@ 261
aia 260
into 260
stor@@ 259
ture 259
velo@@ 259
luc@@ 259
ove 258
video 258
pend@@ 258
razi@@ 256
spar@@ 256
Fran@@ 256
Ro@@ 255
scienti@@ 255
pet@@ 254
nucle@@ 254
sign@@ 253
prim@@ 253
gl@@ 253
lan@@ 253
pul@@ 252
ades@@ 252
dest@@ 252
fici@@ 252
dia 251
gros@@ 251
rin@@ 251
emer@@ 251
med@@ 251
ole, 250
Le@@ 249
No, 249
000 249
nell@@ 248
vill@@ 247
contr@@ 247
mini@@ 246
esi@@ 246
facil@@ 245
forest@@ 245
pian@@ 245
gir@@ 244
zone 244
as 243
libr@@ 243
is 243
preci@@ 242
Mo@@ 242
princi@@ 242
mac@@ 241
divi@@ 241
civi@@ 241
dec@@ 241
ase 241
ow@@ 241
– 241
evit@@ 240
40 240
equi@@ 240
ing 240
olo@@ 240
enor@@ 240
e" 240
las@@ 240
if@@ 239
p 239
cro@@ 239
Ben@@ 239
gam@@ 239
Bi@@ 238
pat@@ 238
Car@@ 238
radi@@ 238
ester@@ 238
abit@@ 238
micro@@ 237
ou@@ 237
rec@@ 237
canc@@ 237
Inter@@ 236
asi 236
insiem@@ 236
sco 234
ure@@ 234
ogra@@ 233
moder@@ 233
poll@@ 233
infin@@ 233
prepar@@ 233
ond@@ 233
10@@ 232
applic@@ 232
tic@@ 231
bot@@ 231
ar 230
sid@@ 229
pub@@ 229
Tut@@ 229
impres@@ 228
lim@@ 228
seri@@ 228
ak@@ 228
dell@@ 227
tran@@ 227
"O@@ 227
India 227
occu@@ 226
loc@@ 226
son 226
Nor@@ 226
magn@@ 226
ordin@@ 225
digit@@ 225
del@@ 225
stre@@ 225
complet@@ 224
Po@@ 223
x 222
ave 222
che@@ 222
one. 222
CA: 222
conclu@@ 222
B: 222
US@@ 221
organis@@ 221
centr@@ 221
enn@@ 220
commerci@@ 220
conver@@ 220
der 220
00@@ 219
ose 219
diffic@@ 218
one, 218
mist@@ 218
oo@@ 218
improv@@ 217
descri@@ 217
distri@@ 217
ton@@ 216
az@@ 215
bo 215
orno 214
area 214
labor@@ 214
an, 214
sup@@ 214
robot 214
lev@@ 214
chiest@@ 214
autom@@ 213
dop@@ 213
mp@@ 213
star@@ 212
dimension@@ 211
contri@@ 210
Sh@@ 209
?@@ 209
attraver@@ 209
Be@@ 209
perc@@ 208
medic@@ 208
stat@@ 208
Joh@@ 207
lar@@ 207
sm@@ 206
conf@@ 206
mam@@ 206
plo@@ 205
60 205
Ci@@ 205
sequ@@ 205
ature 205
terri@@ 205
1 204
roc@@ 204
caus@@ 203
!" 202
tend@@ 202
Pre@@ 202
X@@ 202
Y@@ 202
colt@@ 202
effici@@ 201
nut@@ 201
batt@@ 201
America 201
ie 200
mente, 200
over@@ 200
vers@@ 200
compet@@ 199
enom@@ 199
esem@@ 199
Si@@ 198
grav@@ 198
olog@@ 198
esperi@@ 198
epi@@ 197
limit@@ 197
gett@@ 197
comb@@ 197
man 196
separ@@ 196
biolog@@ 196
liv@@ 195
ame 195
spen@@ 195
artist@@ 195
origin@@ 195
No@@ 195
genet@@ 195
En@@ 195
partic@@ 194
natu@@ 194
duc@@ 193
miliar@@ 193
Europ@@ 193
concentr@@ 193
Univers@@ 191
stri@@ 191
crit@@ 190
Bu@@ 190
qualc@@ 190
Goog@@ 189
giun@@ 189
sugg@@ 188
esempi@@ 187
atur@@ 187
200 186
capac@@ 186
18@@ 186
” 185
neg@@ 185
fini@@ 185
atom@@ 185
”@@ 184
radic@@ 184
199@@ 184
on, 183
A, 183
atmo@@ 183
fort@@ 183
cop@@ 182
Secon@@ 182
mul@@ 182
collabor@@ 182
50@@ 182
%@@ 181
squ@@ 181
Pos@@ 180
relig@@ 180
perce@@ 180
determin@@ 180
intro@@ 179
colle@@ 179
recent@@ 179
ine. 178
De@@ 178
ative 178
ascin@@ 178
0. 178
softw@@ 177
compar@@ 177
500 177
posta 177
Th@@ 176
ingu@@ 176
fo@@ 176
sull@@ 175
ash@@ 175
progres@@ 175
indi, 175
Chris 174
25 174
ue 174
Is@@ 174
do? 173
ol 173
12 172
clas@@ 172
docu@@ 172
ki@@ 172
Ge@@ 172
aci@@ 172
povert@@ 171
priv@@ 171
quell@@ 171
Yor@@ 171
A. 170
he@@ 170
fa@@ 170
govern@@ 170
ze 170
bamb@@ 169
log@@ 168
entu@@ 168
complic@@ 168
Cre@@ 168
combin@@ 167
Re@@ 166
alter@@ 166
tell@@ 166
discus@@ 165
York 165
quar@@ 165
gi 164
lat@@ 164
Africa, 164
bra@@ 164
sub@@ 162
possi@@ 161
piamo 161
Wi@@ 161
probabi@@ 161
"M@@ 160
S 160
se. 160
11 158
stati@@ 158
motiv@@ 158
sum@@ 158
curi@@ 158
we@@ 157
e; 157
ine, 156
societ@@ 156
inst@@ 156
democ@@ 155
process@@ 155
anc@@ 155
integr@@ 155
Don@@ 155
ve, 155
temper@@ 153
bero 152
Sa@@ 152
f 151
nam@@ 151
"A@@ 151
lizz@@ 150
ph@@ 150
osci@@ 150
fant@@ 149
HI@@ 149
et 149
18 149
ex@@ 149
gin@@ 149
let@@ 148
contro@@ 148
100@@ 148
est 147
bom@@ 147
prob@@ 147
Man@@ 147
pit@@ 147
DNA 146
suff@@ 146
diag@@ 146
contin@@ 145
test 145
AID@@ 145
am 145
bac@@ 145
pe 144
c 144
idea. 144
Ste@@ 144
m, 143
D 143
immedi@@ 142
ill 142
urb@@ 142
V 142
sil@@ 142
foll@@ 141
os 140
David 140
C 140
dd@@ 139
sul@@ 139
Rich@@ 139
ey 139
simul@@ 139
♫@@ 139
past@@ 138
rice 138
gri@@ 137
question@@ 137
ba@@ 137
equ@@ 137
ear@@ 136
more 136
unqu@@ 136
Har@@ 136
ve. 135
consi@@ 134
Ira@@ 134
plan@@ 133
Li@@ 133
ili@@ 133
real@@ 133
Africa. 133
nost@@ 132
but@@ 132
teri@@ 132
Char@@ 131
grazi@@ 130
rist@@ 130
in, 130
ry 129
z 129
aw@@ 129
famili@@ 128
abilit@@ 128
Bo@@ 128
reli@@ 128
up@@ 128
time 128
percent@@ 128
ay 127
immag@@ 127
muc@@ 127
educ@@ 127
stron@@ 127
gol@@ 127
e-@@ 126
an. 126
zer@@ 125
dro@@ 125
Tim@@ 125
tom@@ 125
virtu@@ 125
go. 124
bro@@ 124
tre@@ 124
Jo@@ 123
student@@ 123
od@@ 123
ay@@ 122
es, 122
m. 122
abor@@ 122
Dav@@ 121
ing, 121
Internet 121
ach@@ 121
Se@@ 121
robot@@ 121
bit@@ 120
," 120
Au@@ 120
Quest@@ 119
Wor@@ 119
anal@@ 118
ep@@ 118
cru@@ 118
visu@@ 117
/@@ 117
at 116
sto@@ 115
data 113
mom@@ 112
ton 112
of 112
comm@@ 111
stand@@ 111
Uni@@ 111
azi@@ 111
sens@@ 111
har@@ 110
produce 109
t. 109
web@@ 107
clu@@ 105
intell@@ 104
her@@ 104
dri@@ 104
it 104
spec@@ 103
top@@ 103
spo@@ 103
our@@ 103
inclu@@ 102
S. 102
Gre@@ 102
tecnolo@@ 101
OK, 100
DN@@ 100
list@@ 100
es. 100
Vogli@@ 100
our 100
ong 100
kin@@ 98
t, 98
foc@@ 98
cultu@@ 97
inste@@ 96
!@@ 95
business 95
put@@ 95
pena 95
on. 95
sb@@ 95
cogn@@ 94
um 94
les 94
gro@@ 94
wa@@ 93
care 93
acco 93
dise@@ 92
X 92
wi@@ 92
ey@@ 91
T 91
wit@@ 91
lead@@ 91
q@@ 91
’ 90
conce@@ 90
oun@@ 90
So 89
ifica 89
produc@@ 89
enc@@ 89
desi@@ 89
elec@@ 88
all 88
:@@ 88
ers 87
comple@@ 87
us. 87
inform@@ 87
net 86
team 86
lob@@ 86
auti@@ 86
ner 85
ick 85
ing. 85
ago 85
ity 85
OK. 84
Af@@ 84
ke 84
possibilit@@ 84
..@@ 84
ir 83
tin@@ 83
gram@@ 83
ste@@ 83
case 83
g, 83
mic@@ 82
We@@ 82
appro@@ 82
ospit@@ 82
eve 82
bir@@ 82
ey, 81
Oka@@ 81
om 81
Afric@@ 81
cco 81
pati@@ 81
ter 80
get 80
A: 80
pre 80
ack@@ 80
L 80
dig@@ 79
use 79
ei@@ 79
ational 79
bur@@ 78
market@@ 78
nov@@ 78
line 78
h. 77
abbast@@ 76
en, 76
incre@@ 76
attr@@ 75
Wh@@ 75
w, 74
's 73
demo@@ 73
of@@ 73
minut@@ 73
ea@@ 73
pur@@ 73
us, 73
sof@@ 72
amer@@ 72
nolo@@ 72
itut@@ 72
ure 71
as, 71
el, 71
doll@@ 70
trav@@ 70
war@@ 70
fir@@ 70
ick@@ 70
as. 69
Q@@ 69
the 69
]@@ 68
audi@@ 68
tive 67
important@@ 67
altr@@ 67
in. 67
selv@@ 67
non-@@ 66
ation 66
age 66
rav@@ 66
spre@@ 66
gres@@ 66
Ex@@ 65
ke@@ 65
tuto 65
ack 65
ood 65
arch@@ 64
dre@@ 63
fri@@ 63
v 63
clim@@ 63
It@@ 61
sli@@ 61
busin@@ 60
dra@@ 60
n, 60
° 59
ll 59
G 59
sk@@ 58
ga@@ 58
g. 58
ld 57
,000 57
work 57
ch 56
ever@@ 56
ú 56
recor@@ 55
ular@@ 55
r. 55
ance 55
cause 54
ith 53
elet@@ 53
ho@@ 53
en. 53
cr@@ 52
P 52
ain@@ 52
You@@ 52
OK@@ 51
by 51
ef@@ 50
esatt@@ 50
ft 50
B 50
The 50
ion 49
&@@ 49
commer@@ 49
chil@@ 49
ans 49
he 49
sec@@ 48
cerv@@ 48
and, 48
ver 48
et. 47
setti@@ 47
"I 47
anci@@ 46
ther@@ 46
plac@@ 46
hu@@ 46
land@@ 45
top 45
alcun@@ 45
open@@ 45
than 45
od 44
ail@@ 44
und 44
even 44
ence 44
set 43
ice. 43
inte@@ 43
wat@@ 43
bus@@ 43
figu@@ 43
eng@@ 43
sun@@ 43
Euro@@ 42
y: 42
tru@@ 42
K 42
Tran@@ 42
Grazi@@ 42
or, 42
N 42
p, 42
it, 42
shi@@ 42
«@@ 42
ess. 41
sai@@ 41
ary 41
st 41
organi@@ 41
al. 41
ans@@ 40
@@@ 40
w 40
end 40
fro@@ 40
ur 40
put 40
— 40
;@@ 39
right 39
the@@ 39
fut@@ 39
p. 39
… 39
al, 39
ast 39
patter@@ 39
et, 38
low 38
sult@@ 38
ess 38
den 38
ka@@ 38
R 38
th, 38
up 38
univer@@ 38
Ever@@ 38
indu@@ 38
biamo 37
ent 37
n. 37
port 37
diffici@@ 36
larg@@ 36
ess, 36
emat@@ 35
pai@@ 35
É 35
ago, 35
$ 35
á 35
create 35
"The 35
$@@ 34
q 34
AI@@ 34
pla@@ 34
Go@@ 34
ther 34
gh 34
nuc@@ 34
piu@@ 33
low@@ 33
win@@ 33
usu@@ 33
ks 33
ship 33
ic 33
talk 33
Earth 33
ds 32
futu@@ 32
bet@@ 32
it. 32
car 32
Pe@@ 31
art 31
outh 31
ly 31
Ear@@ 31
king 31
out@@ 31
show 31
ling 31
wn 31
sure 30
trans@@ 30
M 30
sy@@ 30
U 30
ool@@ 30
sel@@ 30
long@@ 30
svi@@ 30
social 30
 @@ 29
any@@ 29
is. 29
ago. 29
utto@@ 29
s: 29
attro 29
my 28
ice, 28
ity, 28
all. 28
ell 28
lear@@ 28
land 28
ch, 28
air 28
kill@@ 28
ant 27
lif@@ 27
ation, 27
ter, 27
cy@@ 27
y? 27
pec@@ 27
fast@@ 27
ers, 26
tivit@@ 26
is, 26
opl@@ 26
wee@@ 26
or. 26
wn@@ 26
for 26
» 26
figure 25
th 25
ish 25
sour@@ 25
appe@@ 25
side 25
inde@@ 25
rou@@ 25
tor 24
tou@@ 24
scre@@ 24
tog@@ 24
ter. 24
robo@@ 24
ic, 24
mal 24
wo@@ 23
ves 23
work. 23
all, 23
predic@@ 23
them@@ 23
ch. 23
plor@@ 23
ation@@ 23
siasi 22
ates 22
ness 22
Y 22
pt@@ 22
ad. 22
nec@@ 22
open 22
ó 22
ght 22
chang@@ 22
bit 22
men 22
One 21
well 21
´@@ 21
chem@@ 21
jo@@ 21
ich 21
ax@@ 21
H 21
sion 21
ful@@ 21
air@@ 21
age, 21
Som@@ 21
Let@@ 20
solut@@ 20
ory 20
tech@@ 20
ght, 20
ous@@ 20
ity. 20
í 20
also 20
play 20
new@@ 19
inspi@@ 19
id 19
sourc@@ 19
ral 19
TE@@ 19
sive 19
gh, 19
boo@@ 19
age. 18
W 18
petro@@ 18
ws 18
oul@@ 18
) 18
ble 18
ju@@ 18
ad, 18
cho@@ 18
ts 17
back 17
hom@@ 17
beh@@ 17
ones 17
tion 17
d-@@ 17
work@@ 17
noti@@ 17
mach@@ 17
American 17
back@@ 17
th. 17
ak 17
ed, 16
igh@@ 16
anis@@ 16
int 16
»@@ 16
ff 16
ic. 16
ach 16
ber 16
U.@@ 15
ris 15
jec@@ 15
future 15
ical 15
st, 15
ment 15
flo@@ 15
run@@ 15
uttosto 15
Yea@@ 15
mark@@ 15
over 14
y-@@ 14
ion, 14
ght@@ 14
ins 14
ms 14
ation. 14
ange 14
ist 14
wal@@ 14
unti@@ 14
her 14
work, 14
á@@ 14
sho@@ 13
up, 13
right. 13
sic 13
red 13
ed. 13
Z 13
ust 13
hy@@ 13
*@@ 13
ement 13
insi@@ 13
ut 13
ool 13
°@@ 12
high@@ 12
s? 12
wh@@ 12
ward 12
My 12
ext@@ 12
ank 12
avigli@@ 12
ings 12
my@@ 12
hal@@ 12
any 12
ers. 12
foo@@ 12
way 11
old 11
under@@ 11
cra@@ 11
loo@@ 11
pen 11
w. 11
Amer@@ 11
thro@@ 11
Q 11
ks, 11
egn@@ 11
show@@ 11
book 11
coun@@ 11
ö@@ 11
vidu@@ 10
ow 10
day 10
e's 10
clo@@ 10
F 10
ors 10
fiel@@ 10
ye@@ 10
up. 10
+@@ 10
ect 10
tle 10
+ 10
ple 10
ns 9
lot 9
J 9
ps 9
(@@ 9
cover@@ 9
ind 9
char@@ 9
ep 9
national 9
ally 9
head@@ 9
hav@@ 9
des 9
ence, 9
fic 9
/ 9
ever 9
ks. 9
ok 9
stem@@ 9
s." 9
í@@ 9
imag@@ 9
blem@@ 9
ion. 8
nex@@ 8
ound 8
face 8
ou 8
otogra@@ 8
ets 8
done 8
time, 8
ds, 8
now 8
shar@@ 8
life 8
ys 8
hun@@ 8
j 8
time. 8
ly, 8
we 8
ering 8
hand@@ 8
ould 8
ics 8
#@@ 8
rest 8
mov@@ 7
way, 7
Now 7
well, 7
ful 7
=@@ 7
gy 7
commun@@ 7
ó@@ 7
down@@ 7
hop@@ 7
gs 7
ty@@ 7
respon@@ 7
him@@ 7
alth 7
very 7
ther, 7
she 7
All 7
ken 7
econ@@ 7
wor@@ 7
stop 7
ous 7
food 7
cle@@ 7
ding 6
ent, 6
tic 6
hard 6
ts, 6
spac@@ 6
ning 6
ence. 6
day. 6
res 6
its 6
ready 6
bill@@ 6
let 6
portun@@ 6
Sub@@ 6
single 6
ain 6
ult 6
ross 6
can 6
problem 6
ving 6
ular 6
´ 6
well@@ 5
ys, 5
high 5
able 5
hap@@ 5
stem 5
ell, 5
They 5
alk 5
What 5
act 5
view 5
out 5
see, 5
give 5
grand@@ 5
down 5
…@@ 5
lik@@ 5
ked 5
  4
tions 4
tw@@ 4
off 4
way. 4
reas@@ 4
well. 4
see 4
look 4
ions 4
hou@@ 4
‘@@ 4
full@@ 4
it? 4
tion. 4
We 4
It's 4
head 4
* 4
ys. 4
pt 4
tion@@ 4
some 4
fish@@ 4
y's 4
ands 4
ts. 4
house 4
read@@ 4
ble. 4
ú@@ 4
indi 4
hel@@ 4
made 4
how 4
bod@@ 4
live 4
viron@@ 4
eas@@ 4
home 4
ely 4
kes 4
ying 4
ü@@ 4
global 4
power@@ 4
etter 4
own 4
als 4
ñ@@ 4
ly. 4
lem 4
coup@@ 3
oil 3
call 3
ting 3
ations 3
room@@ 3
was@@ 3
ses 3
you@@ 3
ent. 3
maj@@ 3
Dob@@ 3
“ 3
world@@ 3
ution 3
ven 3
= 3
ds. 3
²@@ 3
langu@@ 3
ated 3
ç@@ 3
cour@@ 3
shor@@ 3
` 3
technolo@@ 3
vie@@ 3
led 3
love 3
big 3
United 3
driv@@ 3
rul@@ 3
call@@ 3
È@@ 3
gets 3
ath 3
ä@@ 3
Now, 3
point@@ 3
This 3
possible 3
direc@@ 3
want 3
your 3
can't 3
ely, 3
It 3
ition 3
ants 3
hor@@ 3
½ 2
¼ 2
not 2
got 2
ons 2
sym@@ 2
€ 2
ching 2
point 2
less 2
beg@@ 2
sion, 2
Do 2
now, 2
know@@ 2
who@@ 2
will 2
model@@ 2
country 2
ies 2
ically 2
entire 2
self 2
ered 2
space 2
)@@ 2
science 2
four 2
gave 2
told 2
story 2
û 2
city 2
try 2
And 2
that 2
tion, 2
from 2
projec@@ 2
why 2
thou@@ 2
reali@@ 2
beli@@ 2
had 2
other 2
If 2
I'@@ 2
jour@@ 2
feel 2
ther. 2
led@@ 2
works 2
actu@@ 2
won@@ 2
ght. 2
order 2
–@@ 2
if 2
@ 2
num@@ 2
gn 2
sing 2
piece 2
² 2
new 2
ences 2
bbiamo 2
ā@@ 2
ents 2
hope 2
effec@@ 2
♪ 2
amount 2
day, 2
’s 1
've 1
part 1
ask 1
forc@@ 1
best 1
objec@@ 1
electr@@ 1
right? 1
system@@ 1
out, 1
word 1
goo@@ 1
lots 1
How 1
`@@ 1
amaz@@ 1
coming 1
Is 1
away 1
human@@ 1
human 1
notic@@ 1
life. 1
™ 1
him 1
etimes 1
world 1
anything 1
thing@@ 1
project 1
İ@@ 1
adv@@ 1
long 1
Here's 1
his 1
nostr@@ 1
® 1
architec@@ 1
don't 1
have 1
sh 1
good 1
ched 1
ampl@@ 1
body 1
child 1
ž@@ 1
ѐ 1
change 1
You 1
imagine 1
publi@@ 1
¼@@ 1
water 1
¥ 1
bly 1
ities 1
certa@@ 1
sort 1
struc@@ 1
ten 1
communic@@ 1
which 1
â@@ 1
room 1
school 1
ê@@ 1
found 1
real 1
this 1
was 1
tty 1
etim@@ 1
© 1
amoun@@ 1
ional 1
engine@@ 1
ment. 1
just 1
throu@@ 1
self@@ 1
when 1
you, 1
happ@@ 1
such 1
feel@@ 1
These 1
lling 1
with 1
exper@@ 1
billion 1
kind 1
sion. 1
centur@@ 1
wom@@ 1
information 1
person 1
most 1
ś@@ 1
ć 1
buil@@ 1
ã@@ 1
front 1
other@@ 1
[ 1
read 1
˚ 1
£@@ 1
^@@ 1
build@@ 1
building 1
É@@ 1
Ç@@ 1
school@@ 1
ï@@ 1
know, 1
recogn@@ 1
out. 1
ample 1
once 1
brain 1
brea@@ 1
play@@ 1
‘ 1
Here 1
experience 1
♪@@ 1
dren 1
ability 1
kids 1
