a 57372
di 56511
e 51307
che 46631
i 35542
o 32187
la 27818
un 26202
è 25705
il 24411
in 23615
are 20709
per 18863
s@@ 18528
i@@ 17823
una 17171
e, 15718
o, 15617
t@@ 15597
non 15340
ri@@ 15266
a. 15206
in@@ 15057
le 15005
a, 14607
o. 14581
si 14551
ar@@ 14358
e. 14198
ato 13919
, 13667
E 13326
d@@ 13162
. 13154
o@@ 12561
di@@ 12376
e@@ 12333
er@@ 12091
or@@ 11985
to 11970
l'@@ 11472
b@@ 11469
st@@ 11336
da 11250
c@@ 11036
sono 10557
f@@ 10315
at@@ 10211
g@@ 10181
an@@ 9975
gi@@ 9932
u@@ 9929
i, 9831
vi@@ 9810
r@@ 9724
pi@@ 9713
v@@ 9645
av@@ 9588
m@@ 9445
ano 9414
del 9410
i. 9272
a@@ 9194
S@@ 9174
re@@ 9066
ci@@ 9057
es@@ 9044
come 8984
p@@ 8983
n@@ 8938
se 8881
l@@ 8839
con 8807
"@@ 8561
si@@ 8298
it@@ 8146
ere 8101
più 7984
questo 7955
ci 7914
con@@ 7910
on@@ 7885
ma 7846
al@@ 7840
am@@ 7624
C@@ 7504
della 7466
ic@@ 7464
lo 7410
en@@ 7389
et@@ 7386
so 7371
li@@ 7022
qu@@ 6937
mi 6863
D@@ 6814
à 6682
de@@ 6662
pro@@ 6441
co@@ 6345
sc@@ 6335
re 6149
P@@ 6122
ha 6111
amo 6083
as@@ 5965
chi@@ 5950
po@@ 5929
al 5921
per@@ 5909
ent@@ 5861
ale 5787
ol@@ 5744
nel 5697
ti@@ 5643
A@@ 5498
: 5439
un@@ 5438
gli 5410
ati 5409
im@@ 5354
ro@@ 5340
ti 5307
bi@@ 5184
era 5169
te 5145
amente 5139
par@@ 5123
-- 5076
ate 5027
ac@@ 5003
em@@ 4990
ver@@ 4978
M@@ 4936
su@@ 4872
pre@@ 4829
mo@@ 4808
mi@@ 4793
us@@ 4786
zione 4757
vol@@ 4729
est@@ 4721
Ma 4714
ho 4709
ando 4660
questa 4658
cosa 4613
molto 4592
dei 4565
ica 4509
os@@ 4506
ità 4470
'@@ 4447
for@@ 4433
delle 4405
ono 4386
do 4372
vi 4350
ap@@ 4336
N@@ 4279
E@@ 4273
uno 4267
fi@@ 4227
col@@ 4223
ett@@ 4188
com@@ 4170
zz@@ 4166
ore 4117
pot@@ 4104
ter@@ 4099
att@@ 4090
alla 4088
ess@@ 4080
ut@@ 4076
abbiamo 4051
z@@ 4027
ra@@ 4023
cre@@ 4014
cui 3999
Non 3977
V@@ 3951
do@@ 3938
essere 3937
O@@ 3930
? 3927
azione 3921
L@@ 3900
el@@ 3888
ata 3887
man@@ 3812
B@@ 3807
li 3782
G@@ 3756
sol@@ 3751
anche 3706
ò 3682
cor@@ 3667
anno 3667
ma@@ 3625
mo 3596
ag@@ 3596
ra 3581
quando 3555
ant@@ 3538
all@@ 3529
La 3524
ot@@ 3510
se@@ 3492
T@@ 3472
dell'@@ 3463
loro 3438
ad 3435
perché 3434
og@@ 3423
ai 3421
no@@ 3405
ne 3350
zi@@ 3348
ec@@ 3329
ur@@ 3287
hanno 3269
fare 3262
R@@ 3242
Il 3241
ch@@ 3239
sta 3229
ric@@ 3226
solo 3214
su 3170
ante 3159
ta 3159
h@@ 3127
port@@ 3115
persone 3096
ell@@ 3067
tu@@ 3053
io 3045
tutto 3036
ente 3033
ist@@ 3026
un'@@ 3018
va 3009
far@@ 3009
and@@ 3007
ment@@ 3000
no 2998
1@@ 2997
quello 2995
met@@ 2969
der@@ 2966
enza 2956
inter@@ 2943
cos@@ 2933
così 2912
endo 2896
ad@@ 2883
ven@@ 2869
ori@@ 2865
ca@@ 2863
is@@ 2861
I@@ 2847
ev@@ 2817
tutti 2815
F@@ 2798
pe@@ 2791
ori 2785
min@@ 2773
ari@@ 2763
nella 2759
ed 2734
de 2727
sia 2727
H@@ 2723
sp@@ 2718
ro 2715
pens@@ 2704
modo 2700
ali 2653
lu@@ 2650
zion@@ 2646
ll@@ 2642
ser@@ 2626
anni 2599
ete 2564
dic@@ 2564
om@@ 2564
siamo 2563
♫ 2556
enti 2547
ciò 2544
ing@@ 2540
cont@@ 2531
Questo 2517
queste 2486
cer@@ 2485
cose 2465
ico 2460
fatto 2450
ora 2445
ast@@ 2445
dov@@ 2441
questi 2433
ento 2421
fic@@ 2416
tr@@ 2404
car@@ 2393
all'@@ 2392
me 2389
-@@ 2388
E' 2372
ov@@ 2370
fin@@ 2343
enz@@ 2341
pen@@ 2336
dis@@ 2333
ni@@ 2327
oc@@ 2318
rit@@ 2315
gior@@ 2292
stato 2291
' 2288
mio 2279
- 2279
pri@@ 2278
uto 2276
fer@@ 2259
br@@ 2247
str@@ 2245
ogni 2242
Qu@@ 2241
ed@@ 2221
gra@@ 2221
ve@@ 2211
te@@ 2201
ament@@ 2191
esso 2189
qual@@ 2185
gu@@ 2184
sione 2177
le@@ 2168
parte 2154
alt@@ 2152
... 2151
ve 2141
due 2133
er 2125
sa@@ 2124
mia 2122
chi 2117
cent@@ 2112
ale. 2096
eg@@ 2091
parl@@ 2085
ino 2079
" 2069
bu@@ 2064
mondo 2063
." 2060
int@@ 2029
person@@ 2029
lo@@ 2022
cas@@ 2021
to@@ 2021
alle 2015
sci@@ 2015
sto 2013
succ@@ 2008
.@@ 2004
quest@@ 2003
gli@@ 2000
prima 1999
anti 1996
tut@@ 1995
mer@@ 1992
tiv@@ 1990
c'è 1982
é 1965
Quindi 1964
dove 1959
tt@@ 1949
può 1935
oi 1924
dal 1921
mon@@ 1917
ati@@ 1908
sap@@ 1883
pr@@ 1881
inizi@@ 1880
pa@@ 1878
chiam@@ 1871
acc@@ 1869
sul 1869
k@@ 1861
ul@@ 1850
poi 1849
azion@@ 1838
gen@@ 1837
cambi@@ 1833
In 1833
ass@@ 1831
ello 1830
nuov@@ 1828
me@@ 1826
lavor@@ 1826
qualcosa 1822
gia 1813
fac@@ 1800
ero 1789
ine 1785
uc@@ 1783
ina 1783
end@@ 1778
gn@@ 1769
sion@@ 1766
ari 1764
pos@@ 1756
ava 1748
mostr@@ 1743
tra 1741
almente 1737
à, 1737
sulla 1736
noi 1731
ei 1728
migli@@ 1725
ale, 1719
zioni 1719
op@@ 1714
import@@ 1707
Se 1706
iamo 1704
trov@@ 1695
vit@@ 1694
tre 1687
are. 1678
sco@@ 1675
degli 1668
ne@@ 1667
ten@@ 1660
". 1656
rebbe 1648
L'@@ 1635
qui 1629
abi@@ 1620
co 1614
mai 1611
picco@@ 1604
aggi@@ 1604
tem@@ 1604
2@@ 1602
o? 1592
ire 1591
rag@@ 1589
quel 1587
etto 1585
ato. 1580
vedere 1580
can@@ 1573
cu@@ 1573
Questa 1571
anza 1569
cam@@ 1564
so@@ 1563
quella 1563
sa 1560
diamo 1560
ris@@ 1558
davvero 1543
peri@@ 1543
re, 1540
vo 1539
y@@ 1530
comun@@ 1526
U@@ 1524
po 1521
cap@@ 1518
ai@@ 1511
por@@ 1509
divent@@ 1507
anz@@ 1507
eff@@ 1505
diver@@ 1505
co. 1504
gh@@ 1503
fon@@ 1500
co, 1497
vita 1491
meno 1485
aff@@ 1476
amento 1474
dalla 1465
costru@@ 1464
du@@ 1463
det@@ 1455
3@@ 1453
ancora 1452
ion@@ 1450
ato, 1450
facci@@ 1447
J@@ 1446
anti@@ 1445
pres@@ 1443
sen@@ 1443
mor@@ 1441
capi@@ 1440
do. 1437
0@@ 1433
ab@@ 1428
etti@@ 1426
pol@@ 1426
post@@ 1424
do, 1423
K@@ 1423
semplic@@ 1420
È 1418
possiamo 1415
uman@@ 1413
suo 1413
nostro 1412
stra@@ 1403
ff@@ 1399
sar@@ 1395
altro 1392
fa 1391
l 1389
quanto 1389
grande 1385
sor@@ 1385
azioni 1381
tro@@ 1375
possibi@@ 1375
ini 1370
dur@@ 1367
au@@ 1364
il@@ 1363
W@@ 1356
tras@@ 1355
pu@@ 1349
ici 1348
are, 1346
avev@@ 1336
sua 1334
tecnolo@@ 1334
ole 1333
da@@ 1328
ca 1325
5@@ 1321
alizz@@ 1317
d'@@ 1313
gente 1313
eva 1312
sempre 1309
Sono 1308
Per 1299
one 1295
coll@@ 1292
Ho 1291
nostra 1286
indi@@ 1282
I 1275
Ed 1273
ici@@ 1271
erano 1270
no. 1269
ce 1268
guar@@ 1265
gran@@ 1265
acqu@@ 1260
Ci 1259
ben@@ 1256
no, 1256
dent@@ 1254
ide@@ 1253
mat@@ 1252
e? 1251
pass@@ 1245
ia 1244
prend@@ 1242
comp@@ 1242
nell'@@ 1236
dire 1236
vostr@@ 1234
rac@@ 1232
abb@@ 1229
A 1229
In@@ 1228
to, 1226
ved@@ 1225
tutte 1224
igli@@ 1222
guard@@ 1222
interess@@ 1218
asi 1218
acci@@ 1217
ra, 1213
pp@@ 1210
ber@@ 1210
ra. 1205
h, 1204
e' 1202
sull@@ 1194
pren@@ 1191
rei 1189
tipo 1189
t 1189
tempo 1187
avere 1187
arriv@@ 1179
secon@@ 1178
ssi@@ 1176
mol@@ 1175
na 1171
qualche 1170
don@@ 1170
ene 1170
St@@ 1169
spi@@ 1168
0 1168
sign@@ 1166
Si 1162
essi@@ 1159
sot@@ 1159
problem@@ 1156
nei 1153
olo 1153
pi 1152
itu@@ 1150
pl@@ 1148
senza 1147
tor@@ 1146
le. 1145
prov@@ 1142
sal@@ 1139
doman@@ 1139
ito 1134
4@@ 1134
ola 1134
circa 1133
dere 1133
on 1132
proprio 1132
Perché 1130
funzion@@ 1129
ogli@@ 1126
idea 1126
dopo 1124
Abbiamo 1122
fu@@ 1122
are@@ 1119
mett@@ 1119
cominci@@ 1119
nu@@ 1114
vo@@ 1113
cin@@ 1113
esempi@@ 1109
n 1107
voi 1105
quell@@ 1105
bas@@ 1105
aggio 1104
quindi 1102
contr@@ 1097
?" 1093
inv@@ 1093
aut@@ 1087
gener@@ 1084
sic@@ 1083
cit@@ 1082
ulti@@ 1081
ir@@ 1081
e: 1078
altra 1077
possono 1074
ali@@ 1073
ren@@ 1072
mom@@ 1070
stata 1068
esse 1068
ragazz@@ 1068
o: 1067
volta 1066
Le 1066
uti@@ 1065
gi 1061
ru@@ 1060
esi 1059
punto 1059
! 1058
diff@@ 1056
d 1055
go 1055
verso 1054
An@@ 1054
lun@@ 1051
Come 1050
altri 1045
serv@@ 1045
cerc@@ 1044
evo 1039
ì 1039
nelle 1039
avo 1036
mar@@ 1035
po' 1035
atti@@ 1033
avano 1031
zzo 1027
rest@@ 1026
des@@ 1026
à. 1025
asp@@ 1025
5 1024
ener@@ 1022
'è 1022
present@@ 1019
enzi@@ 1013
mili@@ 1012
emente 1011
Per@@ 1010
tratt@@ 1010
y 1007
TED 1004
realt@@ 1003
agli@@ 1002
molti 1002
essa 1000
stru@@ 1000
iti 998
ì, 994
gg@@ 994
po, 993
8@@ 991
fatt@@ 987
cell@@ 986
ita 984
senti@@ 981
che, 981
fil@@ 979
gono 979
Quando 978
s 976
Ora, 975
stesso 972
è@@ 972
essi 970
amente, 968
uti 968
ig@@ 964
ro. 962
fam@@ 961
Un 961
forma@@ 961
el 961
pian@@ 958
ì@@ 957
cal@@ 956
w@@ 955
sop@@ 955
Mi 954
pag@@ 954
storia 951
ness@@ 949
deci@@ 949
bile 949
gr@@ 945
sembr@@ 945
ran@@ 944
sistema 942
a? 941
perch@@ 938
dall'@@ 937
segu@@ 936
All@@ 936
cost@@ 935
bisogno 934
reg@@ 934
svilu@@ 933
6@@ 933
u 933
altre 932
mal@@ 932
dire@@ 931
uom@@ 928
zza 927
bell@@ 926
proc@@ 926
negli 924
nostri 923
etti 921
m 919
ite 916
Quest@@ 914
natur@@ 913
potete 912
re. 912
c'@@ 911
to. 909
viv@@ 909
ust@@ 909
vic@@ 908
be@@ 908
remmo 906
attraver@@ 905
get@@ 899
Così 898
9@@ 897
citt@@ 897
arti@@ 894
edi@@ 892
fat@@ 891
ambi@@ 889
viene 889
ani 887
Grazi@@ 886
test@@ 886
lit@@ 886
qualc@@ 885
voglio 884
Ch@@ 883
eri@@ 883
mus@@ 883
Cos@@ 881
or 881
and 880
medi@@ 880
agli 880
; 880
ente. 879
ese 878
maggi@@ 877
Ecco 877
fuori 874
ano. 874
rat@@ 874
Pen@@ 872
zione. 872
000 872
dot@@ 871
stiamo 869
sost@@ 869
evol@@ 868
pubbl@@ 866
mu@@ 864
econom@@ 863
parti@@ 863
id@@ 863
an 863
ro, 862
stanno 862
ica, 857
’@@ 857
proget@@ 854
abbi@@ 853
Quindi, 853
unque 851
rius@@ 850
po. 850
ica. 849
andare 848
7@@ 848
lasci@@ 847
cono 845
lin@@ 845
lo. 843
bamb@@ 843
ere@@ 841
differ@@ 840
posto 839
continu@@ 838
fino 838
aveva 836
dete 836
uro@@ 836
alcuni 835
grup@@ 834
Tut@@ 833
ario 833
numer@@ 832
sarebbe 832
visto 831
mentre 830
quale 829
fosse 827
macch@@ 826
mento 825
ante. 824
lavoro 824
ete, 823
scri@@ 823
val@@ 822
colo@@ 821
son@@ 821
fu 821
pun@@ 820
vu@@ 819
tura 818
ti, 816
stori@@ 814
sper@@ 814
anim@@ 813
ità. 813
Be@@ 813
Una 810
stri@@ 810
milioni 809
immagin@@ 807
tra@@ 807
spazi@@ 807
cat@@ 806
dello 805
gioc@@ 805
Un@@ 799
19@@ 799
lmente 796
fine 796
ede 795
plic@@ 794
penso 792
sioni 790
strut@@ 790
cerv@@ 790
vogli@@ 789
immag@@ 786
ali. 786
problema 785
atter@@ 783
pes@@ 783
inf@@ 782
legg@@ 782
avete 781
creare 780
ano, 780
insegn@@ 778
spon@@ 777
ione 776
form@@ 776
scu@@ 776
super@@ 776
impar@@ 775
ece 773
fo@@ 773
00 773
azione. 771
ron@@ 770
k 770
sei 767
so, 766
quelle 766
mente 762
if@@ 761
aiut@@ 760
insiem@@ 760
ill@@ 758
disc@@ 758
primo 758
pas@@ 757
uro 756
ich@@ 755
prob@@ 753
mondo. 753
ific@@ 752
atto 752
glio 747
anni. 746
li. 745
già 744
ricer@@ 744
gre@@ 742
eri 741
a: 740
nost@@ 739
tanto 739
ace 738
specie 738
conosc@@ 737
molte 736
ppo 735
sim@@ 735
dav@@ 733
credo 732
ali, 732
rap@@ 731
gett@@ 730
evano 729
Pot@@ 727
segn@@ 726
studi@@ 726
ri 725
soci@@ 724
bambini 723
anni, 723
Talk 722
rebbero 722
fut@@ 721
chio 720
que 719
ob@@ 718
si. 718
fond@@ 718
si, 716
nell@@ 715
ta@@ 714
dice 714
termin@@ 713
Al@@ 712
ang@@ 711
Subtitles 708
Transcript: 708
sul@@ 704
bar@@ 699
le, 696
propri@@ 696
alcun@@ 695
ò@@ 691
é@@ 690
inc@@ 688
ù@@ 686
vor@@ 686
vent@@ 685
velo@@ 685
he 684
ni 684
bo@@ 684
iment@@ 683
ce@@ 681
occu@@ 680
incredi@@ 677
speci@@ 676
mag@@ 675
bbiamo 672
attr@@ 669
bbe 665
ani@@ 662
leg@@ 660
ord@@ 660
divers@@ 656
dit@@ 655
complet@@ 653
som@@ 652
pic@@ 651
fel@@ 649
ini@@ 647
Di@@ 644
sist@@ 642
ativ@@ 641
atu@@ 639
fre@@ 636
pet@@ 636
luc@@ 634
stu@@ 632
ram@@ 631
consi@@ 630
enti@@ 630
% 623
Ben@@ 619
divi@@ 618
10 618
materi@@ 615
rel@@ 614
liv@@ 613
ove 612
controll@@ 607
2 607
uni@@ 607
sch@@ 605
Y@@ 605
azz@@ 604
iti@@ 604
den@@ 598
lav@@ 597
dev@@ 594
not@@ 589
org@@ 589
part@@ 582
oper@@ 580
dist@@ 580
princi@@ 576
ate, 575
h 573
far 572
fron@@ 571
go@@ 565
compl@@ 565
program@@ 564
atur@@ 563
cul@@ 559
alc@@ 558
olo@@ 558
de. 557
vide@@ 555
nor@@ 553
sistem@@ 553
seri@@ 550
organi@@ 548
dell@@ 547
gover@@ 546
tri@@ 545
lan@@ 545
doll@@ 544
cir@@ 543
amb@@ 543
Indi@@ 540
ordin@@ 537
pan@@ 536
sem@@ 536
ù 534
50 530
dimen@@ 529
tele@@ 527
caus@@ 525
k, 524
intell@@ 524
ere, 522
men@@ 519
amp@@ 518
fos@@ 518
abor@@ 518
let@@ 517
fl@@ 517
Com@@ 514
vero 513
r 510
vir@@ 510
qui@@ 505
cur@@ 500
glob@@ 495
Su@@ 495
Mar@@ 494
societ@@ 493
ate. 492
tal@@ 492
Con@@ 491
state 490
y, 489
lim@@ 488
20 488
dar@@ 485
ator@@ 485
nec@@ 484
se, 483
x@@ 482
oni 480
bre@@ 479
abilit@@ 478
200@@ 476
de, 474
No@@ 474
fort@@ 472
otogra@@ 468
polit@@ 465
bri@@ 462
s, 462
nov@@ 459
defin@@ 459
med@@ 459
ner@@ 458
..@@ 457
computer 457
3 455
inci@@ 454
me, 451
4 448
ché 447
oro 441
indu@@ 440
dat@@ 435
is 432
mem@@ 432
um@@ 431
hi@@ 430
osc@@ 430
positi@@ 429
question@@ 429
azi@@ 428
pai@@ 427
cc@@ 427
oce@@ 425
imp@@ 421
spe@@ 419
,@@ 416
fe@@ 413
8 413
desi@@ 412
las@@ 412
TE@@ 410
bilit@@ 410
univers@@ 406
20@@ 406
sin@@ 406
g 404
ann@@ 403
6 403
archit@@ 402
à@@ 402
mas@@ 401
ge@@ 401
er, 400
ement@@ 400
bl@@ 400
lon@@ 396
New 395
olog@@ 394
net@@ 392
vers@@ 391
sh@@ 390
comput@@ 386
blo@@ 386
bisog@@ 384
sur@@ 382
prof@@ 380
cl@@ 380
Afric@@ 378
Africa 373
bbero 373
ile 373
ute 372
ou@@ 372
off@@ 372
er. 369
tec@@ 368
k. 367
00@@ 367
th@@ 366
aver@@ 364
dollar@@ 364
1 362
invent@@ 362
7 361
vidu@@ 359
sog@@ 359
Inter@@ 357
es 356
me. 355
bot@@ 352
100 350
stud@@ 349
tur@@ 348
rem@@ 347
[@@ 346
sing@@ 346
gin@@ 345
gro@@ 345
mill@@ 344
af@@ 340
design@@ 340
sare@@ 339
us 336
d, 330
riv@@ 329
Ne@@ 329
j@@ 327
design 326
p 324
biamo 323
en 323
ice 322
solut@@ 319
“@@ 316
ard 315
Americ@@ 311
tim@@ 308
ge 307
mis@@ 307
O 307
s. 298
!@@ 297
Z@@ 297
la@@ 295
tit@@ 295
d. 294
est 293
ing 291
fun@@ 291
we@@ 290
y. 288
respon@@ 284
b 284
anto 280
] 279
ancor@@ 278
sit@@ 271
Ma@@ 268
ros@@ 267
ele@@ 266
9 266
be 266
bor@@ 263
stor@@ 261
into 260
ture 259
razi@@ 256
pul@@ 252
oo@@ 244
as 243
lar@@ 243
mac@@ 241
ase 241
ow@@ 241
– 241
ar 236
OK@@ 235
ogra@@ 233
tic@@ 232
am 231
pub@@ 230
ak@@ 228
son 227
stre@@ 225
ave 224
Go@@ 223
x 222
one. 222
der 222
ose 219
one, 218
az@@ 216
an, 214
sup@@ 214
Amer@@ 212
star@@ 212
?@@ 209
perc@@ 208
sm@@ 206
X@@ 202
ki@@ 201
over@@ 200
esem@@ 199
produc@@ 198
man 196
ame 195
spen@@ 195
partic@@ 194
natu@@ 194
duc@@ 193
econ@@ 189
” 185
”@@ 184
ste@@ 184
on, 183
he@@ 183
tw@@ 181
%@@ 181
ative 178
Th@@ 177
indi, 175
ue 174
c 172
fa@@ 170
ze 170
f 169
bra@@ 165
possi@@ 164
lat@@ 164
ex@@ 163
sub@@ 162
bac@@ 162
S 160
ess 157
busin@@ 155
anc@@ 155
up@@ 154
bero 152
nam@@ 151
ph@@ 150
et 149
our@@ 149
contro@@ 148
contin@@ 145
D 143
ill 142
V 142
C 140
ey 139
♫@@ 139
ear@@ 136
more 136
plan@@ 133
in, 130
ry 129
z 129
time 128
muc@@ 127
e-@@ 126
t. 125
tre@@ 124
es, 122
ing, 121
ach@@ 121
," 120
ep@@ 118
/@@ 117
at 116
of 112
comm@@ 111
har@@ 110
enc@@ 106
her@@ 104
it 104
our 102
es. 100
ong 100
t, 99
sel@@ 99
kin@@ 98
wa@@ 97
on. 95
les 94
mark@@ 93
oun@@ 93
X 92
wi@@ 92
ey@@ 91
T 91
wit@@ 91
q@@ 91
’ 90
So 89
th 89
all 88
ea@@ 88
:@@ 88
ational 88
ers 87
ure 86
lob@@ 86
ing. 85
ity 85
The 85
Af@@ 84
ke 84
ir 83
gram@@ 83
We@@ 82
war@@ 82
eve 82
cco 81
ter 80
get 80
pre 80
L 80
use 79
ei@@ 79
's 77
en, 76
w, 76
incre@@ 76
Wh@@ 75
shi@@ 75
of@@ 73
nolo@@ 72
ood 72
fir@@ 70
ick@@ 70
Q@@ 69
the 69
]@@ 68
ation 67
altr@@ 67
in. 67
age 66
ll 66
ke@@ 65
dre@@ 64
wor@@ 64
arch@@ 64
fri@@ 63
v 63
It@@ 61
° 59
G 59
ch 57
ld 57
,000 57
work 57
ever@@ 56
ú 56
ther@@ 55
ance 55
pla@@ 55
cause 54
P 52
ain@@ 52
by 51
ion 50
chil@@ 50
ft 50
B 50
ent 50
&@@ 49
ell 49
st 49
and, 48
ver 48
ence 47
hu@@ 47
plac@@ 46
w 45
than 45
od 44
wat@@ 44
even 44
bus@@ 43
eng@@ 43
K 42
Tran@@ 42
N 42
it, 42
«@@ 42
sai@@ 41
ary 41
al. 41
ans@@ 40
@@@ 40
end 40
fro@@ 40
put 40
— 40
;@@ 39
right 39
the@@ 39
gh 39
… 39
al, 39
ast 39
low 38
R 38
up 38
É 35
$ 35
ks 35
á 35
$@@ 34
q 34
ther 34
ds 33
low@@ 33
ic 33
wn@@ 33
talk 33
sy@@ 32
bet@@ 32
ly 32
it. 32
king 31
out@@ 31
show 31
wn 31
any@@ 30
trans@@ 30
M 30
U 30
svi@@ 30
 @@ 29
is. 29
my 28
lif@@ 28
lear@@ 28
ant 27
ation, 27
is, 26
opl@@ 26
for 26
» 26
rou@@ 25
tog@@ 24
ves 23
them@@ 23
ation@@ 23
Y 22
pt@@ 22
ó 22
ght 22
chang@@ 22
bit 22
hom@@ 21
´@@ 21
ble 21
jo@@ 21
ich 21
H 21
sion 21
ful@@ 21
air@@ 21
tech@@ 20
ght, 20
ous@@ 20
tion 20
ity. 20
í 20
also 20
ok 20
ral 19
W 18
ts 18
) 18
int 18
back 17
ed, 16
jec@@ 16
»@@ 16
ach 16
ber 16
ght@@ 15
ical 15
ment 15
tion@@ 14
over 14
wh@@ 14
ation. 14
her 14
á@@ 14
red 13
ed. 13
Z 13
ust 13
old 13
*@@ 13
coun@@ 13
insi@@ 13
ut 13
°@@ 12
way 12
ell, 12
ank 12
any 12
under@@ 11
loo@@ 11
w. 11
Q 11
show@@ 11
ö@@ 11
ow 10
day 10
e's 10
clo@@ 10
F 10
ye@@ 10
read@@ 10
+@@ 10
tle 10
imag@@ 10
+ 10
lot 9
ound 9
J 9
(@@ 9
ep 9
ally 9
hav@@ 9
/ 9
ever 9
stem@@ 9
í@@ 9
blem@@ 9
nex@@ 8
ou 8
commun@@ 8
time, 8
now 8
life 8
ys 8
j 8
time. 8
ly, 8
we 8
ould 8
#@@ 8
mov@@ 7
ding 7
way, 7
Now 7
ful 7
=@@ 7
gy 7
ó@@ 7
very 7
she 7
ous 7
hap@@ 6
ning 6
its 6
Sub@@ 6
can 6
´ 6
ys, 5
able 5
They 5
alk 5
What 5
out 5
give 5
grand@@ 5
down 5
…@@ 5
lik@@ 5
ked 5
  4
off 4
reas@@ 4
see 4
look 4
ions 4
‘@@ 4
you@@ 4
We 4
It's 4
* 4
try 4
some 4
ú@@ 4
indi 4
hel@@ 4
made 4
how 4
bod@@ 4
ely 4
kes 4
ying 4
ü@@ 4
pow@@ 4
etter 4
own 4
als 4
ñ@@ 4
call 3
ting 3
ations 3
was@@ 3
“ 3
worl@@ 3
= 3
²@@ 3
ated 3
ç@@ 3
cour@@ 3
projec@@ 3
` 3
technolo@@ 3
big 3
call@@ 3
È@@ 3
ä@@ 3
Now, 3
This 3
want 3
your 3
can't 3
buil@@ 3
It 3
½ 2
¼ 2
not 2
got 2
€ 2
know@@ 2
will 2
ically 2
)@@ 2
û 2
And 2
that 2
from 2
why 2
thou@@ 2
beli@@ 2
had 2
other 2
If 2
I'@@ 2
actu@@ 2
won@@ 2
–@@ 2
if 2
@ 2
num@@ 2
gn 2
² 2
new 2
ā@@ 2
♪ 2
've 1
part 1
system@@ 1
How 1
`@@ 1
human 1
™ 1
world 1
thing 1
thing@@ 1
İ@@ 1
long 1
ere's 1
his 1
nostr@@ 1
® 1
don't 1
have 1
good 1
body 1
ž@@ 1
ѐ 1
change 1
You 1
¼@@ 1
¥ 1
sort 1
struc@@ 1
which 1
â@@ 1
ê@@ 1
real 1
this 1
was 1
© 1
just 1
throu@@ 1
self@@ 1
when 1
with 1
kind 1
most 1
ś@@ 1
ć 1
ã@@ 1
other@@ 1
[ 1
˚ 1
£@@ 1
^@@ 1
É@@ 1
Ç@@ 1
ï@@ 1
know, 1
‘ 1
♪@@ 1
