the 78360
to 47362
of 45533
a 43356
and 41066
in 32196
s 31081
that 28921
, 28909
. 28253
I 26355
is 25285
you 21197
ing 19608
And 19003
ed 17027
we 16693
s@@ 16081
y 15776
it 15301
e@@ 15192
d@@ 14997
es 14921
re@@ 14796
h@@ 14788
this 14472
t 13791
c@@ 13682
-- 13664
in@@ 13014
p@@ 12999
on 12949
w@@ 12650
y@@ 12376
t@@ 12312
f@@ 12205
g@@ 12158
b@@ 12076
e, 11871
o@@ 11794
s, 11542
are 11227
was 11147
e. 11051
s. 10946
a@@ 10843
l@@ 10829
i@@ 10569
for 10422
have 10264
d 9826
m@@ 9417
an 9340
e 9314
ar@@ 9220
st@@ 9176
with 8958
al@@ 8836
n@@ 8783
-@@ 8660
at 8594
k@@ 8587
se@@ 8502
de@@ 8348
al 8247
as 8183
about 8182
u@@ 8088
they 8084
ex@@ 8003
one 7932
er 7894
er@@ 7880
un@@ 7875
be 7874
what 7852
all 7841
en@@ 7825
or@@ 7755
can 7712
ch@@ 7684
r@@ 7616
ac@@ 7533
S@@ 7492
at@@ 7438
or 7300
"@@ 7293
it@@ 7284
th@@ 7190
li@@ 7126
ro@@ 7079
? 7035
ic@@ 6963
y, 6867
not 6821
y. 6714
an@@ 6628
on@@ 6579
m 6577
as@@ 6418
do 6193
si@@ 6160
ou@@ 6046
A@@ 5973
v@@ 5954
: 5944
from 5792
it's 5737
el@@ 5684
et@@ 5667
le@@ 5665
So 5650
be@@ 5536
sh@@ 5525
ma@@ 5504
ri@@ 5480
like 5464
so 5463
my 5433
our 5419
The 5215
very 5203
ly 5185
just 5180
ve 5177
M@@ 5146
but 5065
to@@ 5004
di@@ 4975
out 4932
k 4919
pl@@ 4904
people 4884
lo@@ 4854
en 4840
vi@@ 4802
am@@ 4782
going 4752
if 4728
But 4694
ag@@ 4692
con@@ 4620
these 4603
n 4590
es, 4555
su@@ 4553
B@@ 4536
ad@@ 4528
us@@ 4493
mo@@ 4481
co@@ 4477
es. 4443
ent@@ 4350
ll@@ 4338
em@@ 4317
by 4297
E@@ 4289
D@@ 4276
h 4254
wh@@ 4240
up 4228
ec@@ 4194
H@@ 4163
wor@@ 4162
which 4154
he 4111
is@@ 4065
king 4041
po@@ 4039
because 4034
O@@ 4023
d, 4021
get 4000
fi@@ 3991
ra@@ 3972
." 3969
se 3968
C@@ 3962
ation 3960
z@@ 3953
ol@@ 3953
had 3945
there 3924
le 3916
We 3902
's 3879
when 3871
per@@ 3860
ul@@ 3842
ate 3840
P@@ 3821
es@@ 3798
how 3793
ti@@ 3791
think 3771
This 3758
p 3723
would 3673
ab@@ 3665
om@@ 3637
really 3634
your 3630
I'm 3619
ph@@ 3616
ap@@ 3595
no@@ 3574
see 3571
ar 3565
ne@@ 3562
more 3521
ent 3520
L@@ 3515
It's 3513
do@@ 3492
im@@ 3433
ut@@ 3431
gh@@ 3407
ur@@ 3378
for@@ 3377
l 3367
were 3348
has 3335
Th@@ 3326
thing 3319
their 3288
ver@@ 3276
R@@ 3262
T@@ 3260
il@@ 3259
qu@@ 3255
who 3254
some 3197
ter@@ 3195
1@@ 3185
me 3158
G@@ 3148
You 3115
that's 3111
where 3111
into 3108
ta@@ 3108
then 3094
don't 3090
ds 3056
pe@@ 3053
c 3045
N@@ 3021
ing@@ 3014
t. 3006
mi@@ 2997
gi@@ 2995
bi@@ 2973
F@@ 2967
and@@ 2957
W@@ 2955
all@@ 2941
tr@@ 2937
op@@ 2932
pro@@ 2923
will 2919
them 2884
It 2878
o 2874
t, 2869
way 2826
♫ 2826
gu@@ 2817
actually 2813
ing, 2811
ion@@ 2785
d. 2778
fac@@ 2773
ed@@ 2772
ts 2769
we@@ 2756
So, 2754
he@@ 2741
us 2737
pre@@ 2716
bo@@ 2702
know 2700
go 2697
want 2687
com@@ 2686
make 2659
ing. 2623
ther@@ 2617
ess 2614
hi@@ 2610
sa@@ 2609
est 2603
could 2592
been 2576
it. 2572
re 2525
de 2505
things 2483
tu@@ 2481
I@@ 2466
got 2465
other 2446
cre@@ 2442
you@@ 2435
f 2420
ad 2420
ks 2394
da@@ 2392
x@@ 2380
up@@ 2376
little 2353
me@@ 2334
min@@ 2330
able 2327
enc@@ 2323
ity 2322
j@@ 2304
ist@@ 2289
av@@ 2285
come 2266
ot@@ 2241
J@@ 2240
ally 2238
ght 2230
most 2229
than 2228
man@@ 2221
k, 2218
pi@@ 2217
r 2212
ers 2208
tion 2205
kind 2192
something 2165
ked 2158
ant@@ 2155
know, 2152
est@@ 2142
fe@@ 2132
w 2127
; 2107
a, 2097
sp@@ 2092
et 2087
They 2087
th 2085
bl@@ 2078
his 2062
ess@@ 2053
look 2051
those 2048
our@@ 2043
we're 2035
iti@@ 2029
mon@@ 2024
first 2022
Y@@ 2019
two 2007
ment@@ 2005
gro@@ 2005
par@@ 2004
years 1999
ch 1989
buil@@ 1980
ence 1980
ine 1978
new 1967
ci@@ 1950
go@@ 1950
no 1946
here 1936
ev@@ 1933
year@@ 1921
oo@@ 1919
wa@@ 1916
ic 1914
ed. 1912
only 1912
ki@@ 1889
ely 1887
str@@ 1884
now 1883
time 1878
car@@ 1878
der@@ 1874
over 1864
sion@@ 1860
te@@ 1854
said, 1852
a. 1840
lot 1830
age 1827
g 1827
ell@@ 1824
ical 1807
much 1804
e's 1803
ed, 1799
ous 1799
also 1797
In 1789
int@@ 1782
ste@@ 1778
happen@@ 1771
world 1759
coun@@ 1759
'@@ 1754
you're 1754
ce 1742
back 1739
Now, 1733
take 1730
ded 1720
cent@@ 1718
ated 1713
K@@ 1711
every@@ 1710
sc@@ 1699
k. 1693
ob@@ 1686
What 1682
sel@@ 1677
it, 1677
oun@@ 1672
any 1667
er, 1665
0@@ 1657
ding 1657
tion@@ 1656
thing@@ 1653
put 1653
need 1642
ite 1628
war@@ 1622
ting 1621
au@@ 1621
ali@@ 1620
even 1616
st 1610
many 1606
body 1605
right 1596
tri@@ 1588
there's 1587
wat@@ 1586
she 1584
ast@@ 1580
form@@ 1573
2@@ 1571
br@@ 1569
Wh@@ 1560
gre@@ 1553
did 1550
o, 1544
its 1542
der 1538
el 1536
old 1529
uc@@ 1528
ge 1527
pa@@ 1525
comp@@ 1525
gh 1521
ther 1520
any@@ 1519
er. 1515
pla@@ 1503
around 1500
enti@@ 1496
dis@@ 1495
work 1492
If 1487
ca@@ 1475
tur@@ 1474
3@@ 1458
mean@@ 1457
hav@@ 1457
've 1452
ble 1452
ful 1452
being 1451
every 1449
la@@ 1449
dre@@ 1443
Ch@@ 1437
ally, 1437
through 1431
ace 1428
thou@@ 1425
some@@ 1424
so@@ 1423
loo@@ 1418
good 1417
sy@@ 1416
.@@ 1413
tal@@ 1412
sur@@ 1411
Well, 1410
thin@@ 1408
they're 1406
same 1405
different 1402
use 1399
ying 1394
rit@@ 1394
sci@@ 1391
them@@ 1382
ide@@ 1376
pic@@ 1374
inter@@ 1372
ey@@ 1354
hap@@ 1353
lu@@ 1351
att@@ 1350
chil@@ 1336
down 1333
end@@ 1333
doing 1328
liv@@ 1324
sen@@ 1324
called 1323
ber@@ 1317
spe@@ 1313
x 1312
fin@@ 1306
A 1305
ang@@ 1303
tra@@ 1300
That's 1300
ir@@ 1299
prob@@ 1299
o. 1296
plan@@ 1293
stu@@ 1290
stor@@ 1288
lear@@ 1288
're 1278
is, 1276
I've 1273
technolo@@ 1269
cor@@ 1268
with@@ 1262
ion 1262
ght@@ 1260
V@@ 1257
He 1256
made 1255
came 1249
her@@ 1245
day 1244
gen@@ 1242
ever 1237
her 1236
ation@@ 1232
ice 1230
anc@@ 1216
ary 1215
sol@@ 1212
that, 1209
three 1207
ati@@ 1205
gra@@ 1205
5@@ 1205
w, 1204
ys 1200
wi@@ 1199
ron@@ 1196
ted 1191
ating 1191
se, 1190
ber 1184
hu@@ 1182
underst@@ 1182
ment 1178
We@@ 1178
say 1174
ni@@ 1164
pow@@ 1162
cour@@ 1159
worl@@ 1158
cu@@ 1156
lif@@ 1152
ce@@ 1152
ze 1152
imag@@ 1150
pri@@ 1149
low@@ 1148
ach@@ 1148
ell 1147
gin@@ 1146
'll 1146
sim@@ 1145
gy 1144
4@@ 1143
human 1142
?" 1139
sion 1136
mor@@ 1135
try 1133
talk 1131
0 1131
There 1130
ation. 1125
" 1122
know@@ 1122
ture 1121
interest@@ 1121
ning 1119
cer@@ 1117
gg@@ 1114
ant 1111
life 1111
why 1110
U@@ 1108
produc@@ 1108
bu@@ 1106
peopl@@ 1105
ear@@ 1104
ation, 1100
ari@@ 1100
bot@@ 1098
sort 1097
last 1096
tell 1093
went 1092
ke@@ 1092
pres@@ 1091
bas@@ 1087
sm@@ 1076
tic@@ 1070
didn't 1070
can@@ 1069
ori@@ 1066
give 1064
beli@@ 1064
find 1060
fl@@ 1060
os@@ 1060
own 1055
chang@@ 1053
b 1052
ok 1051
hel@@ 1046
again@@ 1039
bac@@ 1037
used 1036
hear@@ 1034
am 1033
bra@@ 1032
ere's 1030
kes 1030
show 1028
can't 1028
we've 1028
ff@@ 1026
should 1024
TED 1022
ly, 1022
that. 1021
ves 1014
started 1012
sch@@ 1011
big 1008
lin@@ 1003
great 1002
befor@@ 998
ese 998
,000 997
tre@@ 992
ave 989
you. 988
plac@@ 987
't 984
ric@@ 984
mu@@ 979
port@@ 979
An@@ 979
say, 977
oc@@ 975
after 973
star@@ 973
19@@ 973
at's 972
rel@@ 970
problem@@ 969
ru@@ 963
8@@ 962
ke 961
another 961
ous@@ 960
percent 960
fun@@ 960
of@@ 959
ard 957
end 954
That 946
lar@@ 945
ood 935
re. 935
never 935
6@@ 934
speci@@ 931
cont@@ 930
en, 930
air@@ 929
other@@ 929
ai@@ 929
n't 927
9@@ 922
bre@@ 922
peri@@ 922
ll 921
this. 920
fo@@ 918
ions 918
red 918
part 917
bit 914
als 913
won@@ 913
ow@@ 911
start 910
les 908
ea@@ 908
ether 908
ain@@ 906
change 904
read@@ 904
cit@@ 902
h, 902
son@@ 901
um@@ 901
il 899
mar@@ 899
mov@@ 898
looking 897
might 897
pen@@ 896
gn@@ 896
whole 896
idea 895
wn@@ 895
next 891
clo@@ 889
struc@@ 888
ations 886
," 885
ral 882
was@@ 882
self@@ 881
fam@@ 879
tt@@ 879
lik@@ 879
tog@@ 876
ey 875
ght, 873
How 873
St@@ 870
ast 867
5 866
does 866
few 865
out@@ 864
gr@@ 863
trans@@ 863
num@@ 862
lit@@ 862
ance 859
per 855
Because 854
nec@@ 853
world. 852
develo@@ 850
here, 849
ust 848
e? 848
fu@@ 846
cap@@ 845
still 844
design@@ 843
coll@@ 842
tim@@ 841
When 841
off@@ 840
int 840
7@@ 838
Now 837
al. 836
mark@@ 836
man 835
mat@@ 835
secon@@ 832
comes 831
here. 831
commun@@ 830
each 828
there. 823
ound 823
them. 822
jec@@ 819
mer@@ 814
rem@@ 813
partic@@ 812
al, 810
off 809
dic@@ 809
Thank 807
on. 807
ful@@ 806
fre@@ 806
doesn't 806
between 805
gener@@ 805
the@@ 805
tor@@ 801
ener@@ 800
way, 798
pos@@ 798
son 797
’@@ 796
cas@@ 795
le. 794
ically 793
ye@@ 793
re, 793
ici@@ 792
this, 791
vol@@ 790
thought 786
tw@@ 785
reas@@ 785
eve 785
dent@@ 784
million 781
ably 780
wanted 779
natu@@ 779
ned 778
cur@@ 772
met@@ 772
show@@ 769
said 766
thing. 765
long 764
Americ@@ 764
system@@ 764
ve@@ 763
deci@@ 763
shi@@ 762
me, 761
call 760
! 758
jo@@ 757
ep 756
projec@@ 756
pul@@ 756
important 752
ros@@ 745
ani@@ 743
ybe 743
always 742
time, 741
fri@@ 741
Talk 739
real 739
kin@@ 738
possi@@ 738
ak@@ 737
hom@@ 735
OK@@ 735
ys, 733
trying 728
lim@@ 727
serv@@ 727
time. 727
fa@@ 727
ue 725
may 724
better 722
proc@@ 721
I'll 720
differ@@ 717
question@@ 717
on, 716
are@@ 713
ter 712
and, 712
w. 712
por@@ 711
ure 711
Subtitles 708
Transcript: 708
har@@ 704
ity. 703
sub@@ 702
un 702
eff@@ 701
le, 701
dollar@@ 701
dn't 700
ry 699
bor@@ 699
inc@@ 697
acc@@ 696
ran@@ 696
eng@@ 694
sup@@ 694
low 694
ne 693
ong 693
let@@ 693
Afric@@ 692
ft 691
gett@@ 690
econom@@ 689
10 688
ame 685
vit@@ 684
ill@@ 680
az@@ 680
atu@@ 676
get@@ 676
olog@@ 676
00 675
e-@@ 673
ten@@ 672
cul@@ 671
ei@@ 669
over@@ 669
val@@ 669
lat@@ 666
ick@@ 666
cl@@ 665
I'@@ 663
ational 661
fut@@ 660
ans@@ 659
in. 656
ative 653
ach 652
lon@@ 647
ase 646
og@@ 646
wn 645
spi@@ 645
design 643
Indi@@ 643
in, 642
mom@@ 638
one. 635
soci@@ 635
Un@@ 624
ig@@ 622
pp@@ 622
evol@@ 620
ep@@ 618
pr@@ 615
te 612
person@@ 611
sing@@ 611
ere 609
pu@@ 608
spen@@ 599
an, 597
comput@@ 597
cam@@ 591
stri@@ 591
nam@@ 590
ement@@ 590
sit@@ 590
tiv@@ 586
one, 584
net@@ 579
uni@@ 579
solut@@ 578
eg@@ 575
duc@@ 573
busin@@ 572
respon@@ 572
mus@@ 572
fer@@ 570
abilit@@ 568
pt@@ 568
chi@@ 568
anim@@ 563
ren@@ 563
las@@ 561
ser@@ 560
col@@ 559
so, 556
pas@@ 553
inf@@ 551
medi@@ 550
glob@@ 550
quest@@ 548
gover@@ 548
No@@ 546
don@@ 544
itu@@ 543
... 543
In@@ 542
e: 541
dit@@ 541
fil@@ 541
Ma@@ 540
me. 539
pol@@ 539
alt@@ 538
compl@@ 537
atter@@ 535
lan@@ 534
part@@ 533
den@@ 532
Go@@ 531
insi@@ 530
plic@@ 529
50 527
Mar@@ 527
bri@@ 523
ator@@ 523
20 523
ge@@ 522
they@@ 521
tec@@ 519
af@@ 517
stre@@ 515
ore 514
sign@@ 514
actu@@ 512
rac@@ 510
vide@@ 510
sor@@ 509
organi@@ 507
qui@@ 503
ell, 502
cell@@ 502
thre@@ 500
i 498
sul@@ 496
pub@@ 491
org@@ 490
nor@@ 487
blo@@ 485
if@@ 485
fron@@ 484
amp@@ 484
stud@@ 482
incredi@@ 476
mis@@ 475
seri@@ 473
200@@ 473
du@@ 472
New 472
far@@ 471
present@@ 468
Inter@@ 466
bod@@ 466
od 464
dire@@ 463
tro@@ 463
2 460
fic@@ 458
succ@@ 455
mas@@ 455
complet@@ 452
ata 452
de, 451
cos@@ 450
ale 449
oce@@ 448
do. 447
inv@@ 445
ass@@ 445
ill 444
sic@@ 444
under@@ 442
import@@ 441
ile 440
de. 439
prof@@ 438
20@@ 438
mem@@ 436
vir@@ 436
uro@@ 435
indi@@ 434
eri@@ 431
that@@ 430
societ@@ 430
Al@@ 429
00@@ 429
want@@ 429
comm@@ 428
sin@@ 425
reg@@ 425
mill@@ 424
rou@@ 424
polit@@ 423
rat@@ 421
otogra@@ 421
pot@@ 419
som@@ 417
rag@@ 416
vent@@ 414
ram@@ 413
' 409
ner@@ 408
ris@@ 408
coul@@ 408
univers@@ 407
[@@ 407
indu@@ 406
ich@@ 404
cat@@ 403
stori@@ 403
ece 402
contro@@ 402
id@@ 402
archit@@ 398
materi@@ 397
imp@@ 397
riv@@ 395
vers@@ 395
aut@@ 394
dat@@ 391
100 389
mag@@ 388
leg@@ 387
ways 385
arti@@ 385
computer 385
oper@@ 384
continu@@ 383
ver 383
caus@@ 381
is. 380
ank 379
far 378
med@@ 377
incre@@ 377
sist@@ 376
tem@@ 372
bar@@ 372
ute 371
ut 371
arch@@ 366
] 366
vidu@@ 365
,@@ 364
ven@@ 363
dist@@ 362
ust@@ 361
invent@@ 358
Africa 352
8 352
bilit@@ 349
mol@@ 347
vo@@ 346
ose 346
fort@@ 346
intell@@ 345
kno@@ 345
scri@@ 344
cir@@ 344
nov@@ 336
ordin@@ 336
anti@@ 328
ett@@ 326
diff@@ 324
TE@@ 323
qual@@ 323
do, 317
fir@@ 312
bet@@ 311
ate, 311
Z@@ 311
mal@@ 311
ow 311
positi@@ 309
call@@ 309
pai@@ 304
vic@@ 303
Be@@ 302
program@@ 301
wit@@ 299
Con@@ 297
are, 297
pan@@ 297
fro@@ 297
gli@@ 294
dar@@ 293
ever@@ 291
aver@@ 290
ativ@@ 288
iment@@ 288
ben@@ 287
ere, 285
Di@@ 284
aff@@ 284
defin@@ 284
ann@@ 281
1 277
ld 275
state 272
u 271
3 270
are. 270
ulti@@ 269
olo@@ 268
studi@@ 267
colo@@ 266
7 266
ate. 265
dur@@ 262
del 262
stra@@ 261
tech@@ 260
6 260
4 260
men@@ 257
abor@@ 254
ople 253
alk 253
ssi@@ 251
ament@@ 251
dimen@@ 251
Ne@@ 250
test@@ 247
fel@@ 247
Af@@ 245
ina 244
ov@@ 243
Su@@ 241
stru@@ 240
i, 239
consi@@ 235
ved@@ 235
tele@@ 233
ia 232
throu@@ 230
ific@@ 229
sem@@ 228
S 227
cost@@ 225
super@@ 225
post@@ 221
pag@@ 221
rest@@ 218
ica 218
ele@@ 215
V 214
prov@@ 214
to, 212
!@@ 208
zz@@ 208
It@@ 208
Com@@ 207
princi@@ 207
ich 204
9 204
cal@@ 204
grand@@ 202
disc@@ 199
ini@@ 198
era 198
amb@@ 196
la 193
ere@@ 192
sop@@ 191
ness@@ 191
da 187
not@@ 185
ove 183
dev@@ 182
D 182
pass@@ 178
essi@@ 177
viv@@ 173
sco@@ 172
ir 171
sal@@ 171
luc@@ 170
ogra@@ 170
possibi@@ 169
Amer@@ 169
des@@ 169
ete 167
alc@@ 166
pet@@ 166
to. 166
lav@@ 166
divers@@ 165
ould 165
cin@@ 163
lun@@ 159
que 158
no, 157
gn 152
fine 152
termin@@ 150
contin@@ 147
ho 147
econ@@ 146
i. 145
pren@@ 144
/@@ 144
z 142
X@@ 142
C 139
ole 139
bus@@ 133
doll@@ 132
desi@@ 132
Per@@ 132
T 131
lob@@ 130
abi@@ 129
cause 129
ma 129
anz@@ 127
tra 125
controll@@ 122
ra 120
rap@@ 120
acci@@ 120
atur@@ 119
divi@@ 117
tle 116
o: 115
a: 113
nu@@ 111
ale. 111
Qu@@ 111
attr@@ 109
bile 108
tit@@ 107
inci@@ 106
ero 105
Ben@@ 105
occu@@ 104
natur@@ 104
ene 102
q@@ 100
ai 99
contr@@ 97
ire 95
propri@@ 95
edi@@ 93
ha 93
All@@ 89
con 89
$@@ 88
diver@@ 87
P 87
fos@@ 83
spon@@ 83
scu@@ 83
etter 82
K 82
arriv@@ 82
fat@@ 81
sai@@ 79
nex@@ 79
ale, 79
mac@@ 77
tras@@ 77
stem@@ 77
no. 76
O 74
]@@ 73
acqu@@ 72
na 71
Come 70
nolo@@ 68
guar@@ 65
bell@@ 64
a? 63
..@@ 62
uti@@ 62
ta 60
parti@@ 59
ambi@@ 59
pun@@ 59
di 59
sia 58
enz@@ 57
nost@@ 57
gram@@ 57
ord@@ 56
B 56
due 54
q 54
nel 54
E 54
pian@@ 54
X 53
Q@@ 53
?@@ 52
pens@@ 51
Pen@@ 50
ra, 49
sper@@ 49
uman@@ 49
abb@@ 48
li 48
ro 47
cc@@ 47
R 46
M 45
ola 45
&@@ 45
o? 45
zi@@ 43
ato 43
dot@@ 43
;@@ 42
ano 42
does@@ 41
:@@ 41
vor@@ 40
N 40
ani 38
ra. 38
La 38
io 37
script@@ 37
L 37
asp@@ 37
forma@@ 37
v 37
ri 36
- 35
velo@@ 35
G 35
betwe@@ 34
ita 33
co, 33
iti 32
gran@@ 32
dal 32
[ 32
ini 31
mo 30
fare 29
che 29
ello 28
etti 28
razi@@ 28
tut@@ 28
Tran@@ 27
va 27
azz@@ 26
opl@@ 26
F 26
H 26
co. 26
ou 25
ico 25
ari 24
gi 24
numer@@ 23
Y 23
altr@@ 22
lo 22
Q 21
ica, 21
ario 21
000 20
ino 20
mi 20
ora 19
si 19
é@@ 19
Pot@@ 19
co 19
senti@@ 18
mili@@ 18
ito 18
Sub@@ 18
% 18
ati 18
lo. 17
Z 17
ali 17
U 17
sa 17
lavor@@ 17
d'@@ 16
) 16
solo 16
+ 16
atti@@ 15
/ 15
una 15
ori 14
ro, 14
ni 14
fatt@@ 14
titles 14
W 13
ca 13
pes@@ 13
nell@@ 13
etti@@ 13
ica. 13
li. 13
dice 13
Ed 13
legg@@ 13
ci 12
perc@@ 12
sar@@ 12
sta 12
det@@ 12
J 12
ö@@ 12
muc@@ 11
blem@@ 11
chi 11
fon@@ 11
Quest@@ 11
#@@ 11
ti 11
fu 11
ono 10
ro. 10
non 10
capi@@ 10
della 10
é 10
si, 9
– 9
á@@ 9
perch@@ 9
— 9
aggi@@ 9
po 8
". 8
endo 8
ali, 8
eva 8
ete, 8
l'@@ 8
ali. 8
osc@@ 8
cose 8
Il 7
oi 7
uro 7
j 7
guard@@ 7
che, 7
ava 6
si. 6
etto 6
vo 6
fa 6
quel 6
Tut@@ 6
ó 6
ato, 6
dove 6
uno 6
ü@@ 6
avo 6
agli@@ 6
ù 5
(@@ 5
ando 5
circa 5
esi 5
ante 5
@@@ 5
zza 5
po, 5
mia 5
eri 5
ù@@ 4
gia 4
Cos@@ 4
Per 4
+@@ 4
ñ@@ 4
fond@@ 4
oni 4
po. 4
ente 4
dire 4
ei 4
í@@ 4
azi@@ 4
è@@ 4
vi 4
uti 4
ã@@ 4
indi 4
amo 3
anti 3
enza 3
esse 3
tempo 3
ano, 3
Le 3
amento 3
=@@ 3
impar@@ 3
L'@@ 3
parl@@ 3
ó@@ 3
rius@@ 3
uto 3
vu@@ 3
ä@@ 3
ede 3
ato. 3
^@@ 3
dav@@ 3
indi, 3
â@@ 2
segu@@ 2
ï@@ 2
avere 2
qui 2
ppo 2
“@@ 2
” 2
oro 2
alla 2
–@@ 2
* 2
É@@ 2
anza 2
ento 2
svi@@ 2
Sono 2
chio 2
prima 2
dov@@ 2
ć 1
e' 1
sap@@ 1
abbi@@ 1
anche 1
ú@@ 1
Una 1
ente. 1
Ho 1
Ma 1
bamb@@ 1
strut@@ 1
enti 1
º@@ 1
anto 1
˚ 1
igli@@ 1
’ 1
…@@ 1
anni 1
ò@@ 1
à@@ 1
ê@@ 1
rei 1
essi 1
√@@ 1
±@@ 1
%@@ 1
—@@ 1
sul 1
ti, 1
cerv@@ 1
ano. 1
sei 1
£@@ 1
# 1
ā@@ 1
ç@@ 1
Ç@@ 1
olo 1
sare@@ 1
c'@@ 1
= 1
sull@@ 1
